<unk>	0
▁t	-0
he	-1
▁a	-2
▁s	-3
nd	-4
▁w	-5
▁the	-6
ed	-7
▁b	-8
▁to	-9
▁and	-10
▁T	-11
▁h	-12
▁f	-13
in	-14
▁wa	-15
re	-16
it	-17
ou	-18
▁l	-19
▁d	-20
▁c	-21
▁p	-22
▁The	-23
ay	-24
▁m	-25
er	-26
▁was	-27
om	-28
▁he	-29
is	-30
▁n	-31
ar	-32
im	-33
on	-34
▁sa	-35
id	-36
ll	-37
▁S	-38
▁ha	-39
▁g	-40
at	-41
ing	-42
ot	-43
en	-44
an	-45
le	-46
or	-47
end	-48
▁"	-49
ir	-50
▁H	-51
of	-52
am	-53
▁They	-54
et	-55
▁it	-56
▁th	-57
ig	-58
▁He	-59
il	-60
▁in	-61
▁pl	-62
ow	-63
ver	-64
ri	-65
ut	-66
▁be	-67
▁u	-68
▁said	-69
▁play	-70
▁O	-71
ith	-72
▁Tim	-73
▁with	-74
pp	-75
▁day	-76
▁On	-77
▁y	-78
oo	-79
ked	-80
▁r	-81
▁I	-82
▁her	-83
▁She	-84
ex	-85
ce	-86
ld	-87
▁his	-88
▁st	-89
ke	-90
▁L	-91
▁big	-92
nt	-93
ck	-94
▁you	-95
very	-96
st	-97
ve	-98
▁B	-99
▁on	-100
▁happ	-101
un	-102
riend	-103
▁friend	-104
all	-105
ily	-106
ext	-107
▁they	-108
▁M	-109
oft	-110
▁we	-111
▁had	-112
▁not	-113
▁li	-114
▁up	-115
▁want	-116
her	-117
▁of	-118
ad	-119
itt	-120
▁<	-121
|>	-122
▁<|	-123
endoft	-124
endoftext	-125
se	-126
▁do	-127
▁e	-128
▁happy	-129
▁very	-130
ent	-131
es	-132
▁Lily	-133
▁that	-134
▁saw	-135
▁One	-136
▁A	-137
ould	-138
▁mom	-139
▁for	-140
▁sh	-141
ittle	-142
▁little	-143
▁Tom	-144
▁she	-145
ch	-146
ime	-147
▁nam	-148
."	-149
▁time	-150
▁k	-151
▁so	-152
ound	-153
▁there	-154
▁named	-155
▁sm	-156
▁bo	-157
▁were	-158
▁ne	-159
▁wanted	-160
out	-161
▁but	-162
▁friends	-163
ved	-164
!"	-165
ht	-166
ird	-167
el	-168
▁bird	-169
▁an	-170
al	-171
ake	-172
▁too	-173
▁It	-174
ome	-175
ug	-176
ide	-177
▁went	-178
▁hel	-179
▁wh	-180
▁Once	-181
▁is	-182
▁all	-183
▁help	-184
ue	-185
▁loo	-186
▁lo	-187
ter	-188
▁upon	-189
ry	-190
ore	-191
ind	-192
▁fun	-193
▁toy	-194
get	-195
ill	-196
ame	-197
▁as	-198
▁at	-199
ra	-200
▁j	-201
▁did	-202
gether	-203
▁re	-204
ur	-205
▁o	-206
▁se	-207
▁together	-208
ack	-209
ly	-210
▁cat	-211
▁tre	-212
ood	-213
ic	-214
ted	-215
▁dog	-216
▁could	-217
▁can	-218
▁their	-219
ard	-220
ec	-221
ark	-222
▁gir	-223
▁him	-224
▁ball	-225
▁played	-226
?"	-227
▁girl	-228
▁ro	-229
way	-230
▁go	-231
my	-232
hed	-233
▁are	-234
▁out	-235
▁le	-236
ain	-237
▁But	-238
▁fr	-239
hen	-240
▁kn	-241
▁them	-242
um	-243
▁sad	-244
▁W	-245
ax	-246
▁Sue	-247
ul	-248
▁boy	-249
▁tree	-250
▁have	-251
other	-252
▁man	-253
▁Max	-254
▁loved	-255
▁cl	-256
▁looked	-257
oug	-258
▁found	-259
▁sp	-260
▁star	-261
one	-262
hing	-263
▁sc	-264
▁back	-265
▁Ben	-266
own	-267
are	-268
▁like	-269
ful	-270
side	-271
▁bec	-272
▁Sam	-273
▁me	-274
ong	-275
▁park	-276
ight	-277
▁car	-278
▁J	-279
op	-280
elt	-281
▁would	-282
▁liked	-283
▁make	-284
round	-285
▁la	-286
▁fa	-287
▁felt	-288
You	-289
ell	-290
▁see	-291
omet	-292
▁asked	-293
ag	-294
▁new	-295
ice	-296
▁no	-297
ouse	-298
▁came	-299
▁started	-300
ared	-301
iled	-302
ought	-303
▁al	-304
▁other	-305
▁F	-306
▁ag	-307
▁somet	-308
▁good	-309
▁small	-310
ss	-311
▁br	-312
▁smiled	-313
▁say	-314
ried	-315
ade	-316
▁Sp	-317
ings	-318
ob	-319
▁Spot	-320
▁find	-321
▁wor	-322
▁away	-323
▁ex	-324
ia	-325
ty	-326
▁put	-327
▁what	-328
▁made	-329
▁home	-330
▁something	-331
▁from	-332
▁thought	-333
ened	-334
▁co	-335
▁playing	-336
▁every	-337
ook	-338
▁wal	-339
▁mu	-340
uc	-341
ach	-342
arn	-343
▁ran	-344
ile	-345
ie	-346
▁Mia	-347
ave	-348
▁again	-349
▁some	-350
dd	-351
▁laug	-352
▁house	-353
▁fl	-354
▁down	-355
king	-356
▁took	-357
▁scared	-358
ure	-359
▁toys	-360
▁pr	-361
ny	-362
▁You	-363
if	-364
▁learn	-365
▁box	-366
▁will	-367
ab	-368
ret	-369
ick	-370
ep	-371
▁my	-372
▁things	-373
▁around	-374
▁your	-375
▁bl	-376
▁when	-377
oud	-378
uck	-379
▁lived	-380
▁fe	-381
▁then	-382
ish	-383
▁sun	-384
▁sw	-385
▁Mom	-386
as	-387
▁So	-388
,"	-389
pped	-390
▁ch	-391
▁ab	-392
us	-393
ank	-394
▁get	-395
ucy	-396
▁lot	-397
ump	-398
ist	-399
▁Lucy	-400
▁D	-401
oth	-402
▁tried	-403
ap	-404
▁got	-405
▁says	-406
▁know	-407
ited	-408
▁kne	-409
hat	-410
ust	-411
▁who	-412
▁many	-413
▁Bob	-414
▁about	-415
nder	-416
▁int	-417
▁pret	-418
▁any	-419
▁dec	-420
▁red	-421
ive	-422
▁knew	-423
ace	-424
▁more	-425
ise	-426
ous	-427
▁v	-428
▁care	-429
ally	-430
▁hug	-431
au	-432
▁pic	-433
qu	-434
▁water	-435
▁learned	-436
▁po	-437
▁became	-438
▁best	-439
fter	-440
ause	-441
▁op	-442
▁exc	-443
urp	-444
▁And	-445
▁E	-446
▁gre	-447
ways	-448
▁outside	-449
▁laughed	-450
▁always	-451
▁un	-452
▁look	-453
▁show	-454
▁decid	-455
fe	-456
▁because	-457
ant	-458
▁ho	-459
▁room	-460
▁decided	-461
▁into	-462
▁eat	-463
ite	-464
▁jump	-465
▁pe	-466
▁both	-467
ers	-468
▁Then	-469
▁dad	-470
▁ke	-471
udd	-472
▁one	-473
▁When	-474
▁excited	-475
▁this	-476
nn	-477
▁fast	-478
▁nice	-479
▁long	-480
▁feel	-481
▁run	-482
Yes	-483
▁Ann	-484
▁told	-485
▁sk	-486
urpr	-487
▁am	-488
our	-489
ull	-490
▁inside	-491
▁tr	-492
▁surpr	-493
▁mo	-494
▁His	-495
▁pretty	-496
iny	-497
ink	-498
▁sor	-499
▁take	-500
▁Fr	-501
▁C	-502
▁sl	-503
▁gave	-504
Th	-505
og	-506
▁much	-507
lew	-508
▁gra	-509
▁each	-510
▁how	-511
▁rock	-512
ara	-513
imal	-514
ged	-515
▁str	-516
▁animal	-517
▁than	-518
▁Anna	-519
▁Amy	-520
▁need	-521
ven	-522
▁tow	-523
▁or	-524
▁As	-525
etter	-526
▁under	-527
ess	-528
▁sorry	-529
▁old	-530
ge	-531
ised	-532
▁Sara	-533
ro	-534
urt	-535
▁cle	-536
and	-537
▁walked	-538
▁clo	-539
▁fish	-540
ase	-541
▁bear	-542
here	-543
▁hand	-544
ast	-545
urn	-546
▁We	-547
▁kind	-548
▁Her	-549
▁just	-550
▁flow	-551
▁list	-552
▁food	-553
▁didn	-554
▁te	-555
▁ide	-556
▁happened	-557
▁hig	-558
▁animals	-559
▁wat	-560
▁near	-561
ched	-562
▁In	-563
▁try	-564
▁sky	-565
▁fi	-566
▁sn	-567
pl	-568
ine	-569
▁idea	-570
▁us	-571
▁From	-572
ving	-573
▁better	-574
▁heard	-575
▁its	-576
▁bug	-577
▁tw	-578
gry	-579
▁let	-580
ate	-581
pec	-582
able	-583
ff	-584
▁careful	-585
▁share	-586
▁en	-587
▁if	-588
Thank	-589
▁stor	-590
▁fly	-591
▁flew	-592
ial	-593
more	-594
▁anymore	-595
ion	-596
▁spec	-597
▁special	-598
▁never	-599
▁by	-600
▁lots	-601
▁com	-602
lf	-603
ream	-604
▁dan	-605
▁fo	-606
▁don	-607
▁bu	-608
▁wind	-609
ort	-610
rm	-611
▁clean	-612
▁Every	-613
▁gr	-614
ber	-615
▁tal	-616
▁even	-617
▁love	-618
▁end	-619
▁mag	-620
ople	-621
▁hard	-622
▁K	-623
▁cake	-624
▁over	-625
▁shiny	-626
udden	-627
▁fore	-628
ak	-629
▁book	-630
▁turn	-631
▁col	-632
ady	-633
▁safe	-634
▁fam	-635
▁bad	-636
▁after	-637
uddenly	-638
▁surprised	-639
▁high	-640
▁proud	-641
▁people	-642
Let	-643
▁cu	-644
pected	-645
▁door	-646
arden	-647
▁hurt	-648
▁garden	-649
▁come	-650
imb	-651
▁ground	-652
▁opened	-653
ble	-654
▁picked	-655
▁che	-656
▁im	-657
▁loud	-658
▁climb	-659
hy	-660
expected	-661
▁unexpected	-662
▁gl	-663
▁way	-664
ild	-665
ail	-666
▁give	-667
▁thanked	-668
▁hugged	-669
▁still	-670
▁color	-671
▁blue	-672
▁ever	-673
▁call	-674
▁far	-675
ip	-676
▁P	-677
No	-678
▁off	-679
▁magic	-680
ummy	-681
age	-682
iz	-683
ough	-684
▁should	-685
▁jumped	-686
ool	-687
▁par	-688
▁kid	-689
▁family	-690
▁smile	-691
hes	-692
uff	-693
▁Jo	-694
▁place	-695
kay	-696
▁walk	-697
▁now	-698
ct	-699
em	-700
▁great	-701
▁qu	-702
▁Suddenly	-703
▁stay	-704
▁strong	-705
aut	-706
ane	-707
▁sto	-708
▁unt	-709
ture	-710
▁bra	-711
▁forest	-712
▁bro	-713
▁beaut	-714
dy	-715
itty	-716
▁stick	-717
▁squ	-718
▁next	-719
lease	-720
ning	-721
▁frog	-722
▁until	-723
▁Sally	-724
▁boat	-725
aking	-726
▁After	-727
▁N	-728
▁happily	-729
▁listen	-730
ies	-731
by	-732
▁kids	-733
▁app	-734
iful	-735
▁beautiful	-736
▁showed	-737
▁tra	-738
▁imp	-739
▁clos	-740
▁helped	-741
▁story	-742
▁dra	-743
▁Kitty	-744
be	-745
▁town	-746
ress	-747
▁while	-748
pt	-749
▁rain	-750
unny	-751
rel	-752
▁picture	-753
oy	-754
▁being	-755
▁At	-756
▁mor	-757
▁rem	-758
▁everyone	-759
▁R	-760
▁hat	-761
ree	-762
ary	-763
▁called	-764
▁met	-765
▁ad	-766
▁game	-767
▁stopped	-768
▁Fin	-769
▁wo	-770
ger	-771
▁open	-772
▁angry	-773
Can	-774
▁yummy	-775
uffy	-776
▁keep	-777
▁cry	-778
▁truck	-779
▁soft	-780
▁Let	-781
▁Th	-782
▁lost	-783
▁warm	-784
▁bed	-785
▁mouse	-786
▁brave	-787
vent	-788
▁ate	-789
▁Jack	-790
fore	-791
ished	-792
▁watch	-793
oon	-794
▁hole	-795
▁doll	-796
It	-797
▁couldn	-798
dded	-799
bit	-800
▁de	-801
▁leave	-802
▁two	-803
▁fell	-804
so	-805
▁face	-806
▁green	-807
▁also	-808
abbit	-809
owl	-810
iss	-811
▁Fl	-812
▁flowers	-813
What	-814
gan	-815
irst	-816
▁soon	-817
▁where	-818
ock	-819
▁noise	-820
▁rabbit	-821
az	-822
▁slide	-823
▁before	-824
self	-825
illy	-826
▁G	-827
▁sat	-828
irrel	-829
▁kept	-830
ired	-831
▁pus	-832
ma	-833
les	-834
▁use	-835
▁nodded	-836
▁hear	-837
▁“	-838
▁pa	-839
Hi	-840
▁Fluffy	-841
▁squirrel	-842
▁Now	-843
▁store	-844
ear	-845
Look	-846
▁expl	-847
▁hands	-848
▁pain	-849
▁birds	-850
▁going	-851
▁cook	-852
▁sing	-853
ub	-854
uch	-855
aug	-856
aught	-857
leep	-858
▁Can	-859
aybe	-860
▁funny	-861
day	-862
▁having	-863
▁ey	-864
▁catch	-865
▁think	-866
▁yell	-867
uit	-868
▁fix	-869
▁bre	-870
▁fin	-871
▁used	-872
▁cra	-873
▁tired	-874
ange	-875
▁bunny	-876
▁looking	-877
▁wr	-878
▁work	-879
▁bus	-880
▁our	-881
thing	-882
▁wait	-883
▁pull	-884
air	-885
▁kit	-886
ting	-887
We	-888
ember	-889
▁jo	-890
That	-891
▁thr	-892
▁beh	-893
▁dr	-894
▁mean	-895
▁others	-896
▁flo	-897
chen	-898
▁kitchen	-899
▁sound	-900
▁sunny	-901
▁pond	-902
led	-903
ng	-904
▁ask	-905
▁talk	-906
▁has	-907
▁dif	-908
▁mommy	-909
▁head	-910
▁pie	-911
▁import	-912
▁real	-913
▁mess	-914
rew	-915
▁first	-916
▁tri	-917
Mom	-918
▁flower	-919
▁remember	-920
▁eyes	-921
▁fav	-922
ello	-923
joy	-924
▁Do	-925
Hello	-926
▁con	-927
▁vo	-928
ft	-929
▁z	-930
▁swe	-931
▁Wh	-932
ath	-933
▁right	-934
▁duck	-935
ious	-936
▁sand	-937
▁party	-938
▁moral	-939
▁important	-940
ac	-941
▁cold	-942
imes	-943
▁race	-944
▁curi	-945
ount	-946
zy	-947
▁making	-948
▁shared	-949
orn	-950
▁dress	-951
▁okay	-952
▁ice	-953
▁bright	-954
▁advent	-955
▁enjoy	-956
llow	-957
▁ri	-958
▁curious	-959
▁own	-960
irt	-961
▁tall	-962
▁hop	-963
▁bag	-964
▁worked	-965
▁sleep	-966
▁rest	-967
▁here	-968
Wow	-969
▁hid	-970
reed	-971
▁mon	-972
▁thing	-973
hn	-974
▁favor	-975
▁yard	-976
▁dis	-977
▁favorite	-978
▁hill	-979
▁began	-980
▁draw	-981
▁Dad	-982
Don	-983
▁cla	-984
que	-985
▁This	-986
bed	-987
▁tell	-988
▁John	-989
ster	-990
▁follow	-991
▁watched	-992
▁move	-993
ect	-994
▁bel	-995
▁night	-996
▁surprise	-997
co	-998
▁pick	-999
▁agreed	-1000
▁behind	-1001
▁cut	-1002
aper	-1003
▁block	-1004
lly	-1005
ied	-1006
▁stop	-1007
▁floor	-1008
▁hun	-1009
▁grass	-1010
▁table	-1011
▁voice	-1012
▁hot	-1013
▁Bobo	-1014
▁walking	-1015
▁sho	-1016
▁trees	-1017
fere	-1018
▁top	-1019
▁That	-1020
▁song	-1021
▁worry	-1022
▁differe	-1023
▁grab	-1024
▁farm	-1025
▁please	-1026
▁butter	-1027
▁shout	-1028
▁tail	-1029
▁lady	-1030
isy	-1031
▁lion	-1032
▁sweet	-1033
▁Mr	-1034
▁dark	-1035
▁read	-1036
▁colors	-1037
ign	-1038
▁closer	-1039
▁leaves	-1040
aring	-1041
▁Jane	-1042
▁needed	-1043
▁del	-1044
▁Timmy	-1045
▁forg	-1046
▁turned	-1047
▁fire	-1048
▁different	-1049
Why	-1050
▁wood	-1051
▁cr	-1052
▁tast	-1053
▁cried	-1054
▁laugh	-1055
▁hair	-1056
▁piece	-1057
ered	-1058
▁cars	-1059
▁adventure	-1060
▁feeling	-1061
▁roll	-1062
▁full	-1063
ike	-1064
bo	-1065
▁paper	-1066
▁does	-1067
▁touch	-1068
▁hungry	-1069
▁yellow	-1070
ken	-1071
ached	-1072
▁per	-1073
▁prin	-1074
▁friendly	-1075
▁swing	-1076
▁Mommy	-1077
▁broken	-1078
▁ready	-1079
▁wet	-1080
oom	-1081
ient	-1082
cked	-1083
ater	-1084
bye	-1085
▁pretend	-1086
ppy	-1087
▁fruit	-1088
▁light	-1089
▁listened	-1090
▁prom	-1091
▁another	-1092
▁dance	-1093
▁All	-1094
▁only	-1095
where	-1096
▁climbed	-1097
▁running	-1098
▁danc	-1099
▁gone	-1100
ila	-1101
ndma	-1102
▁plan	-1103
av	-1104
aby	-1105
▁swim	-1106
▁train	-1107
▁smell	-1108
art	-1109
▁Everyone	-1110
▁close	-1111
▁reached	-1112
sh	-1113
▁Lila	-1114
▁butterf	-1115
▁ant	-1116
▁hold	-1117
▁wonder	-1118
▁blocks	-1119
▁slow	-1120
▁cool	-1121
▁amaz	-1122
oney	-1123
▁repl	-1124
▁been	-1125
▁pu	-1126
▁fight	-1127
▁goodbye	-1128
▁wall	-1129
▁helping	-1130
▁glad	-1131
▁sees	-1132
af	-1133
▁fair	-1134
iced	-1135
▁pushed	-1136
▁dri	-1137
▁less	-1138
ey	-1139
▁cream	-1140
ather	-1141
▁must	-1142
▁baby	-1143
▁window	-1144
▁hide	-1145
▁ac	-1146
▁balloon	-1147
▁wished	-1148
▁ar	-1149
▁ste	-1150
▁snow	-1151
▁wag	-1152
▁moment	-1153
▁sit	-1154
▁explore	-1155
▁perf	-1156
▁name	-1157
▁Soon	-1158
▁buy	-1159
▁child	-1160
▁Just	-1161
▁apple	-1162
▁stuck	-1163
▁thank	-1164
▁fall	-1165
▁done	-1166
▁bit	-1167
▁quick	-1168
ized	-1169
▁trying	-1170
icy	-1171
▁doing	-1172
▁might	-1173
▁bar	-1174
aisy	-1175
▁dream	-1176
▁underst	-1177
▁coming	-1178
▁din	-1179
irty	-1180
▁There	-1181
▁build	-1182
▁looks	-1183
▁To	-1184
ash	-1185
▁dirty	-1186
▁scary	-1187
▁mar	-1188
▁held	-1189
ames	-1190
ins	-1191
▁shouted	-1192
▁butterfly	-1193
avy	-1194
▁count	-1195
▁left	-1196
▁tiny	-1197
▁bran	-1198
▁reach	-1199
▁wise	-1200
▁land	-1201
▁replied	-1202
▁books	-1203
▁why	-1204
▁owl	-1205
▁brother	-1206
▁pulled	-1207
▁mat	-1208
ott	-1209
▁dro	-1210
▁sure	-1211
▁through	-1212
▁three	-1213
ix	-1214
▁treat	-1215
▁win	-1216
▁grow	-1217
▁spl	-1218
▁air	-1219
▁woods	-1220
▁seen	-1221
▁swam	-1222
▁job	-1223
ield	-1224
key	-1225
ely	-1226
▁clapped	-1227
▁pink	-1228
andy	-1229
▁plant	-1230
ask	-1231
▁cup	-1232
▁sometimes	-1233
▁cloud	-1234
▁fill	-1235
▁remembered	-1236
▁chair	-1237
▁colorful	-1238
outh	-1239
▁bigger	-1240
▁Inside	-1241
▁join	-1242
▁cre	-1243
▁mouth	-1244
▁nest	-1245
Oh	-1246
uddy	-1247
Okay	-1248
ph	-1249
▁lesson	-1250
▁clot	-1251
▁stayed	-1252
▁paint	-1253
▁waved	-1254
▁cont	-1255
▁word	-1256
▁Daisy	-1257
▁clothes	-1258
ud	-1259
▁grabbed	-1260
cle	-1261
room	-1262
oup	-1263
▁quickly	-1264
▁waited	-1265
▁broke	-1266
▁games	-1267
ation	-1268
▁Finally	-1269
▁Buddy	-1270
ower	-1271
ucky	-1272
▁noticed	-1273
▁cast	-1274
▁gent	-1275
▁set	-1276
▁While	-1277
▁mus	-1278
▁blew	-1279
▁heavy	-1280
ton	-1281
▁miss	-1282
▁spot	-1283
▁gif	-1284
▁turns	-1285
asure	-1286
▁anything	-1287
▁enjoyed	-1288
▁world	-1289
▁arm	-1290
▁pictures	-1291
▁sea	-1292
▁likes	-1293
lc	-1294
der	-1295
ries	-1296
▁hopped	-1297
▁alone	-1298
orm	-1299
▁pat	-1300
▁mix	-1301
▁Sarah	-1302
This	-1303
▁pot	-1304
▁year	-1305
▁Tommy	-1306
▁bott	-1307
▁pen	-1308
▁bike	-1309
less	-1310
▁everywhere	-1311
▁tower	-1312
▁tight	-1313
▁won	-1314
▁ride	-1315
man	-1316
ere	-1317
▁followed	-1318
▁threw	-1319
▁himself	-1320
eddy	-1321
row	-1322
▁je	-1323
▁white	-1324
ctor	-1325
arent	-1326
▁comp	-1327
▁What	-1328
pe	-1329
ner	-1330
▁pol	-1331
ape	-1332
▁black	-1333
▁break	-1334
amp	-1335
▁makes	-1336
".	-1337
▁Em	-1338
▁key	-1339
▁wrong	-1340
ee	-1341
▁music	-1342
▁delic	-1343
thy	-1344
▁parent	-1345
▁deep	-1346
cess	-1347
Do	-1348
▁wear	-1349
▁bee	-1350
ued	-1351
▁castle	-1352
ance	-1353
▁ve	-1354
▁monster	-1355
oun	-1356
ister	-1357
iet	-1358
ully	-1359
▁em	-1360
ves	-1361
olly	-1362
▁hit	-1363
▁quiet	-1364
▁forgot	-1365
▁Billy	-1366
▁wants	-1367
up	-1368
▁bowl	-1369
▁bor	-1370
▁leaf	-1371
▁understand	-1372
▁vis	-1373
▁round	-1374
▁danced	-1375
ren	-1376
▁dry	-1377
▁nap	-1378
rot	-1379
fully	-1380
os	-1381
ang	-1382
▁faster	-1383
itten	-1384
▁sign	-1385
▁leg	-1386
▁talked	-1387
zz	-1388
▁brought	-1389
▁Gra	-1390
▁cookies	-1391
▁side	-1392
▁sec	-1393
▁Joe	-1394
▁smart	-1395
▁mum	-1396
cy	-1397
▁que	-1398
▁happen	-1399
ross	-1400
▁branch	-1401
▁sharing	-1402
▁dinner	-1403
▁button	-1404
▁someone	-1405
▁rocks	-1406
▁res	-1407
▁fox	-1408
▁poin	-1409
▁really	-1410
▁well	-1411
▁secret	-1412
▁finished	-1413
▁sister	-1414
▁rel	-1415
▁worried	-1416
ence	-1417
ards	-1418
▁flying	-1419
▁contin	-1420
▁gift	-1421
▁beach	-1422
▁river	-1423
ipp	-1424
▁ele	-1425
▁visit	-1426
▁everything	-1427
▁gu	-1428
▁king	-1429
▁today	-1430
▁silly	-1431
th	-1432
▁el	-1433
▁field	-1434
gy	-1435
▁Z	-1436
▁perfect	-1437
▁danger	-1438
▁children	-1439
▁sang	-1440
▁welc	-1441
▁gi	-1442
▁wish	-1443
▁Ch	-1444
▁filled	-1445
▁Maybe	-1446
▁smiles	-1447
▁snack	-1448
▁shin	-1449
▁eating	-1450
▁carefully	-1451
ead	-1452
▁else	-1453
▁realized	-1454
▁pudd	-1455
▁promised	-1456
ze	-1457
▁fur	-1458
▁parents	-1459
▁spr	-1460
▁pig	-1461
▁continued	-1462
▁free	-1463
ord	-1464
Maybe	-1465
▁pieces	-1466
itting	-1467
▁cow	-1468
▁jar	-1469
stead	-1470
▁start	-1471
▁mud	-1472
▁drag	-1473
▁bite	-1474
▁orange	-1475
▁ju	-1476
imi	-1477
▁creat	-1478
▁purp	-1479
▁fairy	-1480
▁sail	-1481
▁yes	-1482
▁blank	-1483
▁crying	-1484
▁rolled	-1485
▁boun	-1486
cket	-1487
▁drink	-1488
▁enough	-1489
▁purple	-1490
▁throw	-1491
▁pet	-1492
▁Mimi	-1493
▁blanket	-1494
▁bath	-1495
▁words	-1496
bble	-1497
▁without	-1498
▁soup	-1499
▁grandma	-1500
▁Jen	-1501
▁money	-1502
ale	-1503
▁amazing	-1504
ons	-1505
▁Jim	-1506
▁att	-1507
▁snake	-1508
ire	-1509
▁laughing	-1510
ses	-1511
chool	-1512
▁mail	-1513
ich	-1514
▁Bl	-1515
▁closed	-1516
▁whe	-1517
gg	-1518
iver	-1519
▁bottle	-1520
▁past	-1521
▁crab	-1522
▁mother	-1523
▁morning	-1524
▁doctor	-1525
used	-1526
▁candy	-1527
fort	-1528
▁barked	-1529
▁wagged	-1530
▁school	-1531
▁welcome	-1532
▁treasure	-1533
▁asks	-1534
▁smo	-1535
▁sitting	-1536
ises	-1537
▁moved	-1538
▁owner	-1539
▁brown	-1540
unch	-1541
▁getting	-1542
!”	-1543
.”	-1544
▁apples	-1545
▁monkey	-1546
▁shop	-1547
▁dangerous	-1548
▁strange	-1549
▁lon	-1550
ased	-1551
▁egg	-1552
▁ra	-1553
▁higher	-1554
▁caught	-1555
▁pre	-1556
▁lonely	-1557
una	-1558
ible	-1559
▁road	-1560
ated	-1561
▁-	-1562
ol	-1563
▁living	-1564
▁paw	-1565
ush	-1566
▁pass	-1567
▁shoes	-1568
asket	-1569
althy	-1570
▁shining	-1571
▁talking	-1572
▁lake	-1573
▁basket	-1574
me	-1575
ass	-1576
▁dragon	-1577
▁letter	-1578
set	-1579
▁stre	-1580
▁chee	-1581
▁buck	-1582
▁wings	-1583
fish	-1584
▁runs	-1585
▁fan	-1586
▁nose	-1587
▁mad	-1588
▁bat	-1589
But	-1590
vel	-1591
▁mine	-1592
ches	-1593
▁cray	-1594
▁delicious	-1595
▁bring	-1596
▁coat	-1597
Tim	-1598
▁sear	-1599
▁stand	-1600
▁belie	-1601
igh	-1602
app	-1603
est	-1604
▁fit	-1605
▁Emma	-1606
▁same	-1607
isk	-1608
▁tom	-1609
▁Re	-1610
itch	-1611
▁teddy	-1612
▁stone	-1613
▁puddle	-1614
cks	-1615
▁swings	-1616
▁years	-1617
▁gentle	-1618
ined	-1619
▁singing	-1620
board	-1621
▁hoped	-1622
▁whist	-1623
ella	-1624
▁thinks	-1625
▁vill	-1626
▁farmer	-1627
▁wore	-1628
sw	-1629
igg	-1630
▁shell	-1631
▁herself	-1632
▁Molly	-1633
▁finally	-1634
▁answ	-1635
▁hor	-1636
▁cho	-1637
▁days	-1638
▁tasty	-1639
The	-1640
▁scream	-1641
▁kite	-1642
▁ben	-1643
▁Together	-1644
▁Blue	-1645
▁trou	-1646
arm	-1647
▁heart	-1648
▁arri	-1649
ball	-1650
ars	-1651
phant	-1652
Please	-1653
▁shap	-1654
▁ph	-1655
▁part	-1656
▁belong	-1657
red	-1658
▁pill	-1659
iskers	-1660
aughty	-1661
bow	-1662
▁naughty	-1663
▁seem	-1664
ract	-1665
▁dropped	-1666
▁teach	-1667
ier	-1668
sy	-1669
▁Remy	-1670
▁carrot	-1671
▁Their	-1672
▁push	-1673
▁teac	-1674
▁coll	-1675
sc	-1676
▁touc	-1677
▁cour	-1678
▁pile	-1679
▁shapes	-1680
▁woke	-1681
▁puppy	-1682
▁twins	-1683
ama	-1684
▁elephant	-1685
▁min	-1686
▁Bella	-1687
isa	-1688
ude	-1689
▁hiding	-1690
▁Whiskers	-1691
Tom	-1692
OK	-1693
▁cheered	-1694
erry	-1695
▁bow	-1696
▁juice	-1697
▁rub	-1698
▁bush	-1699
▁lunch	-1700
▁pers	-1701
▁village	-1702
ipped	-1703
llie	-1704
▁course	-1705
▁grew	-1706
▁Le	-1707
fused	-1708
▁Lisa	-1709
▁shook	-1710
▁rainbow	-1711
▁spin	-1712
▁sack	-1713
▁bench	-1714
▁rob	-1715
▁touched	-1716
▁arrived	-1717
▁num	-1718
▁fence	-1719
▁bell	-1720
▁Mark	-1721
irth	-1722
irthday	-1723
▁able	-1724
▁cute	-1725
idge	-1726
▁joy	-1727
▁cheese	-1728
▁rope	-1729
▁spoon	-1730
▁Grandma	-1731
▁prob	-1732
▁plane	-1733
▁war	-1734
▁street	-1735
▁nut	-1736
▁few	-1737
br	-1738
▁most	-1739
Good	-1740
▁Jill	-1741
col	-1742
▁des	-1743
ian	-1744
lla	-1745
▁forever	-1746
▁bugs	-1747
▁teacher	-1748
▁busy	-1749
eter	-1750
irp	-1751
lem	-1752
▁seed	-1753
▁inc	-1754
▁eas	-1755
▁carry	-1756
eb	-1757
ost	-1758
▁problem	-1759
▁band	-1760
▁wonderful	-1761
▁dolls	-1762
ountain	-1763
▁shy	-1764
▁wra	-1765
▁spo	-1766
ilk	-1767
▁promise	-1768
▁birthday	-1769
▁feels	-1770
▁Thank	-1771
▁sounds	-1772
▁corn	-1773
▁slowly	-1774
ato	-1775
▁shake	-1776
▁kiss	-1777
▁helpful	-1778
▁power	-1779
▁bread	-1780
arp	-1781
▁milk	-1782
▁cave	-1783
▁rec	-1784
▁robot	-1785
▁neck	-1786
▁pocket	-1787
▁believe	-1788
▁cover	-1789
▁storm	-1790
▁upset	-1791
▁holding	-1792
▁live	-1793
umpy	-1794
▁patient	-1795
▁Fred	-1796
gly	-1797
read	-1798
▁kitten	-1799
▁pop	-1800
▁turt	-1801
▁suc	-1802
▁sharp	-1803
▁balls	-1804
▁shr	-1805
▁stories	-1806
unt	-1807
▁towards	-1808
▁ugly	-1809
▁cir	-1810
▁Later	-1811
▁dist	-1812
eared	-1813
▁honey	-1814
▁gray	-1815
▁disapp	-1816
▁mark	-1817
ove	-1818
▁seat	-1819
▁late	-1820
▁dirt	-1821
▁treats	-1822
▁spark	-1823
adow	-1824
▁meet	-1825
▁bucket	-1826
▁turtle	-1827
▁noises	-1828
oggy	-1829
▁Leo	-1830
▁Be	-1831
▁trip	-1832
▁splas	-1833
▁magical	-1834
epend	-1835
ator	-1836
▁lem	-1837
▁horse	-1838
alm	-1839
fortable	-1840
▁mist	-1841
ider	-1842
▁glow	-1843
▁fold	-1844
▁driver	-1845
▁seek	-1846
▁young	-1847
▁sug	-1848
Lily	-1849
▁taking	-1850
▁mach	-1851
oose	-1852
▁amazed	-1853
ourn	-1854
▁wild	-1855
▁bone	-1856
▁puzz	-1857
iling	-1858
▁sandw	-1859
ung	-1860
▁journ	-1861
ling	-1862
▁zoom	-1863
▁princess	-1864
▁instead	-1865
▁huge	-1866
▁wheel	-1867
▁hugs	-1868
▁fighting	-1869
pping	-1870
Sure	-1871
▁string	-1872
bled	-1873
▁net	-1874
▁coin	-1875
▁ca	-1876
▁di	-1877
ens	-1878
▁sal	-1879
▁foot	-1880
▁rude	-1881
▁organ	-1882
▁lucky	-1883
▁forget	-1884
▁inv	-1885
not	-1886
▁cloth	-1887
▁Mama	-1888
▁giant	-1889
▁spicy	-1890
pper	-1891
▁whistle	-1892
▁sick	-1893
▁life	-1894
▁path	-1895
▁craw	-1896
Of	-1897
▁drove	-1898
ors	-1899
Hey	-1900
▁cannot	-1901
▁snowman	-1902
▁cookie	-1903
▁songs	-1904
▁stars	-1905
▁wide	-1906
▁With	-1907
▁Cat	-1908
rill	-1909
▁cart	-1910
▁spider	-1911
ert	-1912
▁fixed	-1913
▁Mary	-1914
▁moon	-1915
▁joke	-1916
▁bubble	-1917
▁wasn	-1918
▁write	-1919
aur	-1920
▁Luna	-1921
▁last	-1922
▁missed	-1923
▁cou	-1924
▁boss	-1925
den	-1926
▁card	-1927
▁ru	-1928
▁ash	-1929
▁fle	-1930
▁comes	-1931
▁pillow	-1932
▁ser	-1933
▁machine	-1934
▁landed	-1935
▁peace	-1936
ize	-1937
▁nod	-1938
▁grumpy	-1939
ery	-1940
▁smooth	-1941
▁hidden	-1942
▁daddy	-1943
▁worm	-1944
▁taste	-1945
▁drive	-1946
▁fruits	-1947
lower	-1948
▁sel	-1949
▁confused	-1950
▁stepped	-1951
▁adventures	-1952
ife	-1953
▁chased	-1954
ity	-1955
ular	-1956
▁Daddy	-1957
oop	-1958
▁suddenly	-1959
▁Chirp	-1960
erest	-1961
▁later	-1962
▁takes	-1963
▁thin	-1964
box	-1965
▁messy	-1966
▁rad	-1967
▁interest	-1968
to	-1969
▁sour	-1970
▁myster	-1971
elly	-1972
▁val	-1973
▁bark	-1974
▁ring	-1975
▁Come	-1976
▁change	-1977
▁oven	-1978
▁ducks	-1979
▁selfish	-1980
ever	-1981
▁bought	-1982
▁shelf	-1983
▁lay	-1984
▁ce	-1985
▁wave	-1986
▁sticks	-1987
▁tea	-1988
▁tie	-1989
▁sheep	-1990
▁pour	-1991
▁fil	-1992
let	-1993
▁grate	-1994
ope	-1995
▁ban	-1996
▁exp	-1997
▁pan	-1998
▁drew	-1999
▁legs	-2000
kin	-2001
amed	-2002
ions	-2003
▁jog	-2004
▁shirt	-2005
▁step	-2006
▁beak	-2007
pect	-2008
▁ent	-2009
▁Momo	-2010
▁grateful	-2011
▁wash	-2012
▁across	-2013
▁sleepy	-2014
▁zoo	-2015
▁Chirpy	-2016
▁emp	-2017
▁empty	-2018
▁seemed	-2019
▁feather	-2020
▁spe	-2021
ose	-2022
▁clever	-2023
ugg	-2024
▁drum	-2025
▁Ollie	-2026
?”	-2027
▁imag	-2028
wel	-2029
▁med	-2030
▁hope	-2031
▁quest	-2032
▁lemon	-2033
izzy	-2034
▁slid	-2035
▁faces	-2036
▁ba	-2037
▁phone	-2038
mer	-2039
▁watching	-2040
eth	-2041
▁plate	-2042
izz	-2043
ult	-2044
▁wolf	-2045
▁save	-2046
▁smelly	-2047
▁line	-2048
▁banan	-2049
▁act	-2050
▁calm	-2051
▁interesting	-2052
▁crayons	-2053
▁spray	-2054
▁jewel	-2055
▁clouds	-2056
upp	-2057
▁along	-2058
▁ign	-2059
yard	-2060
llo	-2061
Come	-2062
ward	-2063
▁fing	-2064
▁Jerry	-2065
▁arms	-2066
▁prot	-2067
▁Doggy	-2068
▁fancy	-2069
▁though	-2070
▁jelly	-2071
▁supp	-2072
▁backyard	-2073
▁chick	-2074
▁maybe	-2075
▁tid	-2076
▁splash	-2077
▁dogs	-2078
▁Jimmy	-2079
▁whole	-2080
▁rocket	-2081
▁puzzle	-2082
erly	-2083
▁healthy	-2084
▁pin	-2085
ually	-2086
▁such	-2087
▁pract	-2088
▁easy	-2089
ment	-2090
▁wondered	-2091
▁mot	-2092
ont	-2093
▁finish	-2094
ocked	-2095
▁explain	-2096
▁trouble	-2097
▁nothing	-2098
▁neigh	-2099
▁anyone	-2100
▁Mum	-2101
onest	-2102
▁rod	-2103
sp	-2104
St	-2105
▁smelled	-2106
▁gives	-2107
▁front	-2108
▁tidy	-2109
▁pack	-2110
▁working	-2111
▁ship	-2112
▁queen	-2113
▁van	-2114
▁bossy	-2115
▁lift	-2116
irr	-2117
▁scar	-2118
▁neighb	-2119
orrow	-2120
▁av	-2121
▁explor	-2122
▁emb	-2123
▁Bunny	-2124
▁puts	-2125
▁honest	-2126
▁Bobby	-2127
▁mind	-2128
▁longer	-2129
oc	-2130
▁weak	-2131
▁wing	-2132
▁forgive	-2133
▁Why	-2134
▁stood	-2135
▁saved	-2136
▁St	-2137
▁plants	-2138
oomy	-2139
▁kick	-2140
▁mistake	-2141
▁fake	-2142
ork	-2143
▁yog	-2144
▁chew	-2145
▁af	-2146
iger	-2147
▁cozy	-2148
▁onto	-2149
▁gently	-2150
unk	-2151
urse	-2152
arra	-2153
▁pool	-2154
iting	-2155
arrass	-2156
ming	-2157
▁waiting	-2158
arge	-2159
▁embarrass	-2160
▁match	-2161
▁sol	-2162
▁prince	-2163
era	-2164
▁lock	-2165
▁pointed	-2166
▁lad	-2167
▁cheer	-2168
▁building	-2169
▁ants	-2170
▁cross	-2171
▁cleaned	-2172
ek	-2173
aughter	-2174
Be	-2175
▁sur	-2176
▁jumping	-2177
▁stret	-2178
▁bal	-2179
▁ret	-2180
uce	-2181
▁My	-2182
▁tomorrow	-2183
raid	-2184
ones	-2185
ipe	-2186
▁afraid	-2187
▁number	-2188
▁Tiny	-2189
▁return	-2190
▁dish	-2191
▁places	-2192
▁search	-2193
▁ladder	-2194
▁lovely	-2195
we	-2196
▁wom	-2197
▁print	-2198
▁deer	-2199
▁pri	-2200
▁person	-2201
▁woman	-2202
aced	-2203
▁pizz	-2204
▁law	-2205
▁pretended	-2206
▁splashed	-2207
▁large	-2208
arl	-2209
▁boring	-2210
▁daughter	-2211
gest	-2212
▁gen	-2213
▁Somet	-2214
▁nearby	-2215
▁screamed	-2216
▁bounce	-2217
ned	-2218
▁hum	-2219
▁lazy	-2220
▁swimming	-2221
▁Al	-2222
▁sandwich	-2223
▁ashamed	-2224
▁answer	-2225
▁pizza	-2226
▁true	-2227
▁rich	-2228
▁stra	-2229
▁couch	-2230
▁gather	-2231
▁Bird	-2232
▁teeth	-2233
▁chase	-2234
▁noisy	-2235
▁fear	-2236
My	-2237
▁furry	-2238
▁loves	-2239
▁success	-2240
▁scarf	-2241
aw	-2242
▁If	-2243
▁creative	-2244
▁trust	-2245
▁wand	-2246
vous	-2247
▁Ducky	-2248
▁wearing	-2249
▁Benny	-2250
▁hang	-2251
▁hello	-2252
▁Bu	-2253
▁goes	-2254
▁drank	-2255
▁smiling	-2256
▁saf	-2257
▁eag	-2258
▁sold	-2259
▁chocol	-2260
▁dig	-2261
▁ner	-2262
▁matter	-2263
▁appeared	-2264
▁test	-2265
▁circle	-2266
▁nervous	-2267
▁flag	-2268
▁motor	-2269
▁gener	-2270
▁TV	-2271
▁Don	-2272
▁tool	-2273
▁powerful	-2274
pa	-2275
ado	-2276
▁polite	-2277
ina	-2278
elp	-2279
▁clown	-2280
▁gold	-2281
▁rare	-2282
▁impress	-2283
▁tries	-2284
Now	-2285
oppy	-2286
▁knee	-2287
▁hero	-2288
▁Please	-2289
▁gun	-2290
rag	-2291
Stop	-2292
▁map	-2293
▁How	-2294
▁chocolate	-2295
▁bald	-2296
▁cand	-2297
icked	-2298
▁carried	-2299
▁protect	-2300
▁balloons	-2301
▁these	-2302
▁gate	-2303
▁har	-2304
▁mirr	-2305
▁generous	-2306
▁snee	-2307
▁tape	-2308
▁sugar	-2309
▁Go	-2310
▁reg	-2311
▁mirror	-2312
▁poor	-2313
iff	-2314
▁mysterious	-2315
▁class	-2316
ute	-2317
▁ap	-2318
itter	-2319
issors	-2320
ensive	-2321
▁note	-2322
▁mic	-2323
▁pres	-2324
ual	-2325
▁hur	-2326
osaur	-2327
▁sque	-2328
▁towel	-2329
▁stir	-2330
▁expensive	-2331
▁respect	-2332
nic	-2333
▁lead	-2334
▁cri	-2335
▁picnic	-2336
▁dinosaur	-2337
▁Sometimes	-2338
▁disco	-2339
▁dizzy	-2340
▁march	-2341
ventually	-2342
▁Ella	-2343
▁ear	-2344
▁decor	-2345
▁peaceful	-2346
▁shadow	-2347
▁mixed	-2348
▁tick	-2349
▁icy	-2350
Help	-2351
▁clap	-2352
▁scissors	-2353
▁Bear	-2354
▁weird	-2355
▁closet	-2356
▁lamp	-2357
▁yelled	-2358
▁soap	-2359
▁fat	-2360
▁tent	-2361
▁journey	-2362
ndpa	-2363
▁pump	-2364
isp	-2365
▁famous	-2366
ote	-2367
owed	-2368
airs	-2369
▁vase	-2370
▁tasted	-2371
rob	-2372
scape	-2373
▁rough	-2374
▁drawing	-2375
▁brush	-2376
▁cap	-2377
▁U	-2378
▁Andy	-2379
▁whale	-2380
▁boot	-2381
▁relie	-2382
▁sock	-2383
any	-2384
▁bean	-2385
getable	-2386
▁tele	-2387
mb	-2388
▁feet	-2389
▁embarrassed	-2390
▁spread	-2391
▁crown	-2392
▁glue	-2393
▁vegetable	-2394
▁eld	-2395
▁bake	-2396
▁shark	-2397
ume	-2398
▁pay	-2399
imp	-2400
▁bridge	-2401
▁cage	-2402
▁mel	-2403
lebr	-2404
ness	-2405
▁log	-2406
▁gigg	-2407
▁whisp	-2408
▁mod	-2409
▁dancing	-2410
lves	-2411
▁celebr	-2412
▁painted	-2413
▁scare	-2414
▁wouldn	-2415
▁glass	-2416
▁Some	-2417
▁clock	-2418
ser	-2419
▁knocked	-2420
robe	-2421
ced	-2422
ubb	-2423
▁frag	-2424
▁blow	-2425
▁norm	-2426
▁sco	-2427
▁thick	-2428
asp	-2429
▁wis	-2430
ighed	-2431
▁Br	-2432
▁3	-2433
▁fragile	-2434
erries	-2435
▁mountain	-2436
▁sell	-2437
▁normal	-2438
oph	-2439
▁team	-2440
▁berries	-2441
▁burn	-2442
▁adm	-2443
▁become	-2444
▁elderly	-2445
▁space	-2446
▁incred	-2447
ustr	-2448
▁ignor	-2449
▁fright	-2450
▁which	-2451
▁lose	-2452
udy	-2453
▁balance	-2454
▁clear	-2455
▁present	-2456
▁wagon	-2457
▁fine	-2458
▁branches	-2459
▁group	-2460
▁corner	-2461
port	-2462
▁police	-2463
▁cone	-2464
▁wrap	-2465
▁mis	-2466
▁ob	-2467
▁understood	-2468
▁sword	-2469
▁jam	-2470
▁fool	-2471
▁incredible	-2472
▁eggs	-2473
▁kicked	-2474
▁frustr	-2475
▁ter	-2476
ique	-2477
ond	-2478
▁ord	-2479
▁Jenny	-2480
▁unus	-2481
Max	-2482
▁Pe	-2483
▁unusual	-2484
▁roar	-2485
▁yarn	-2486
Wh	-2487
▁moms	-2488
Where	-2489
▁Sammy	-2490
▁mighty	-2491
▁unique	-2492
▁horn	-2493
▁guess	-2494
▁Rex	-2495
▁goat	-2496
▁organized	-2497
▁relieved	-2498
▁dug	-2499
alous	-2500
▁square	-2501
▁barn	-2502
ray	-2503
▁tells	-2504
ony	-2505
▁jealous	-2506
▁'	-2507
Mommy	-2508
▁clay	-2509
▁frightened	-2510
▁shoe	-2511
▁terri	-2512
▁chest	-2513
▁feed	-2514
cient	-2515
▁spent	-2516
▁exploring	-2517
▁taught	-2518
▁Tr	-2519
▁stubb	-2520
▁dull	-2521
▁pray	-2522
▁fier	-2523
▁breath	-2524
▁hose	-2525
▁ancient	-2526
▁stubborn	-2527
▁frustrated	-2528
▁fierce	-2529
▁foolish	-2530
▁creature	-2531
▁wake	-2532
▁finding	-2533
kn	-2534
▁twist	-2535
ym	-2536
▁rose	-2537
▁discover	-2538
▁spoiled	-2539
▁comfortable	-2540
▁wrote	-2541
▁useful	-2542
▁exam	-2543
▁washed	-2544
▁rat	-2545
lace	-2546
▁ind	-2547
▁searched	-2548
▁bathroom	-2549
▁toug	-2550
▁straw	-2551
▁necklace	-2552
▁bitter	-2553
▁asking	-2554
fic	-2555
dle	-2556
▁measure	-2557
known	-2558
orry	-2559
alk	-2560
▁guit	-2561
▁diffic	-2562
▁covered	-2563
▁hears	-2564
▁hoop	-2565
▁bubbles	-2566
▁unknown	-2567
▁Will	-2568
▁tomato	-2569
▁swan	-2570
▁paws	-2571
▁pir	-2572
▁difficult	-2573
▁witch	-2574
▁sunf	-2575
▁ending	-2576
▁nosy	-2577
▁tough	-2578
unn	-2579
▁bloom	-2580
▁pumpkin	-2581
▁add	-2582
▁unl	-2583
▁dove	-2584
▁gloomy	-2585
▁cab	-2586
anged	-2587
▁clum	-2588
bers	-2589
▁waves	-2590
▁guitar	-2591
yal	-2592
▁board	-2593
Here	-2594
▁dead	-2595
cil	-2596
apped	-2597
▁crazy	-2598
▁clumsy	-2599
xible	-2600
▁salad	-2601
ground	-2602
▁lif	-2603
▁thankful	-2604
▁drop	-2605
anut	-2606
erp	-2607
▁terrible	-2608
▁pencil	-2609
▁mov	-2610
com	-2611
iant	-2612
▁stage	-2613
▁cabin	-2614
▁wealthy	-2615
land	-2616
▁stuff	-2617
als	-2618
▁potato	-2619
▁Many	-2620
▁Instead	-2621
▁loyal	-2622
▁delicate	-2623
berry	-2624
▁flexible	-2625
▁joined	-2626
▁knowing	-2627
▁yours	-2628
▁value	-2629
▁mailbox	-2630
▁sort	-2631
▁yourself	-2632
▁cheap	-2633
▁remind	-2634
▁ham	-2635
▁crane	-2636
▁snacks	-2637
▁hairy	-2638
irsty	-2639
selves	-2640
▁nuts	-2641
▁knife	-2642
▁chicken	-2643
▁jet	-2644
▁hats	-2645
▁asleep	-2646
ungle	-2647
light	-2648
upid	-2649
▁shoot	-2650
▁moving	-2651
Ben	-2652
▁Brown	-2653
rilliant	-2654
▁marble	-2655
▁market	-2656
▁cats	-2657
▁thirsty	-2658
▁zip	-2659
▁jungle	-2660
▁changed	-2661
▁brilliant	-2662
▁toast	-2663
▁pepper	-2664
▁No	-2665
▁disg	-2666
shine	-2667
▁banana	-2668
▁exciting	-2669
▁trick	-2670
▁collect	-2671
▁perform	-2672
▁mask	-2673
ates	-2674
Me	-2675
▁bored	-2676
ory	-2677
▁tiger	-2678
▁cube	-2679
▁study	-2680
▁body	-2681
▁finger	-2682
▁record	-2683
iness	-2684
▁jack	-2685
▁island	-2686
▁fridge	-2687
most	-2688
▁squee	-2689
▁frown	-2690
erpill	-2691
▁depend	-2692
▁caterpill	-2693
▁jolly	-2694
Who	-2695
▁shore	-2696
ormous	-2697
▁smaller	-2698
▁acorn	-2699
▁vegetables	-2700
und	-2701
▁stupid	-2702
▁enormous	-2703
▁dough	-2704
▁heal	-2705
▁nods	-2706
▁solve	-2707
corn	-2708
▁stri	-2709
▁disgust	-2710
▁counted	-2711
▁independ	-2712
▁cher	-2713
▁fountain	-2714
▁neighbor	-2715
▁almost	-2716
▁stat	-2717
ident	-2718
▁jacket	-2719
▁sunshine	-2720
▁harm	-2721
▁Little	-2722
▁borrow	-2723
▁careless	-2724
pes	-2725
▁sauce	-2726
igin	-2727
▁gar	-2728
ilt	-2729
aken	-2730
▁ang	-2731
▁Jake	-2732
▁sighed	-2733
ict	-2734
iginal	-2735
▁independent	-2736
gu	-2737
ying	-2738
▁obed	-2739
▁Emily	-2740
▁sunflower	-2741
Are	-2742
▁explained	-2743
▁seeds	-2744
▁shiver	-2745
If	-2746
▁disgusting	-2747
▁obedient	-2748
▁times	-2749
▁caterpillar	-2750
▁original	-2751
▁successful	-2752
▁four	-2753
▁flash	-2754
▁stove	-2755
▁parrot	-2756
▁cost	-2757
▁taken	-2758
mbre	-2759
▁adventur	-2760
▁filthy	-2761
▁umbre	-2762
▁batter	-2763
▁goose	-2764
▁bedroom	-2765
iddle	-2766
▁suit	-2767
▁cro	-2768
▁popcorn	-2769
live	-2770
▁adventurous	-2771
▁medic	-2772
▁lab	-2773
▁serious	-2774
▁cries	-2775
▁fearful	-2776
▁dependable	-2777
erable	-2778
▁belonged	-2779
▁Your	-2780
▁peanut	-2781
▁miserable	-2782
▁crayon	-2783
▁boats	-2784
▁choose	-2785
arth	-2786
▁magn	-2787
▁carrots	-2788
▁medicine	-2789
▁spring	-2790
▁cam	-2791
▁standing	-2792
▁garage	-2793
io	-2794
▁stones	-2795
Sam	-2796
▁relax	-2797
reen	-2798
▁statue	-2799
▁slipped	-2800
▁aunt	-2801
▁raced	-2802
▁middle	-2803
▁fig	-2804
▁scale	-2805
▁shine	-2806
▁pasta	-2807
met	-2808
▁hay	-2809
pack	-2810
▁lifted	-2811
▁gets	-2812
▁prize	-2813
▁scr	-2814
inky	-2815
▁impressive	-2816
▁pebble	-2817
▁helmet	-2818
▁er	-2819
▁rug	-2820
cream	-2821
▁dest	-2822
Sorry	-2823
▁design	-2824
▁escape	-2825
iable	-2826
▁brace	-2827
▁stamp	-2828
▁meal	-2829
▁bracelet	-2830
▁gem	-2831
▁painting	-2832
▁Sn	-2833
▁steal	-2834
▁eager	-2835
▁compet	-2836
▁point	-2837
inary	-2838
▁pant	-2839
▁picks	-2840
▁umbrella	-2841
▁spotted	-2842
▁jeep	-2843
▁comb	-2844
▁Today	-2845
▁Even	-2846
amond	-2847
▁liz	-2848
icop	-2849
icopter	-2850
ours	-2851
▁triang	-2852
▁smoke	-2853
▁raven	-2854
▁pian	-2855
▁using	-2856
▁diamond	-2857
ages	-2858
▁tied	-2859
▁crack	-2860
▁helicopter	-2861
▁piano	-2862
▁belt	-2863
▁angel	-2864
▁built	-2865
▁cheerful	-2866
iv	-2867
▁fork	-2868
▁tank	-2869
▁squash	-2870
▁Peter	-2871
oin	-2872
▁troubled	-2873
lph	-2874
▁magnet	-2875
▁thoughtful	-2876
▁True	-2877
▁houses	-2878
▁flute	-2879
rn	-2880
bb	-2881
▁moder	-2882
▁melon	-2883
▁hammer	-2884
▁crawled	-2885
▁press	-2886
▁lizard	-2887
▁shows	-2888
▁reliable	-2889
▁low	-2890
▁dolph	-2891
▁bottom	-2892
aser	-2893
▁lean	-2894
▁movie	-2895
▁mop	-2896
berries	-2897
▁ruined	-2898
▁wrapped	-2899
appy	-2900
ilty	-2901
unnel	-2902
▁gum	-2903
cod	-2904
▁tunnel	-2905
▁sil	-2906
codile	-2907
▁guilty	-2908
▁modern	-2909
atter	-2910
▁locked	-2911
▁waff	-2912
cles	-2913
▁playful	-2914
atch	-2915
▁wip	-2916
▁hurts	-2917
▁cryst	-2918
▁kissed	-2919
▁arrow	-2920
▁uncom	-2921
▁wander	-2922
▁sink	-2923
▁uncomfortable	-2924
host	-2925
▁needs	-2926
▁nail	-2927
▁muff	-2928
ipop	-2929
llipop	-2930
▁ref	-2931
▁pants	-2932
▁mush	-2933
▁mushroom	-2934
▁jug	-2935
▁camera	-2936
▁disappoin	-2937
▁lollipop	-2938
▁mole	-2939
▁humble	-2940
▁tax	-2941
opl	-2942
eropl	-2943
▁walks	-2944
▁cact	-2945
▁fluffy	-2946
▁ghost	-2947
▁aeropl	-2948
▁ones	-2949
▁hopping	-2950
▁grace	-2951
zed	-2952
▁stretch	-2953
▁crocodile	-2954
▁competit	-2955
▁boys	-2956
▁hunt	-2957
▁helpless	-2958
▁Sus	-2959
▁eng	-2960
▁pige	-2961
▁popular	-2962
oto	-2963
▁bull	-2964
▁answered	-2965
▁taxi	-2966
▁cere	-2967
▁pipe	-2968
▁poured	-2969
▁ordinary	-2970
cut	-2971
umpet	-2972
▁happiness	-2973
▁raft	-2974
▁trumpet	-2975
▁harmless	-2976
▁torn	-2977
cean	-2978
▁wire	-2979
udge	-2980
▁radio	-2981
▁spill	-2982
▁ocean	-2983
▁delight	-2984
ief	-2985
▁anx	-2986
uth	-2987
▁beet	-2988
▁thread	-2989
How	-2990
▁helps	-2991
▁cactus	-2992
▁env	-2993
▁invited	-2994
cident	-2995
▁questions	-2996
▁tears	-2997
▁anxious	-2998
▁persist	-2999
▁candle	-3000
coa	-3001
▁Buzz	-3002
▁quar	-3003
▁comput	-3004
edy	-3005
▁figure	-3006
▁libr	-3007
▁passed	-3008
tt	-3009
▁comet	-3010
▁cereal	-3011
▁harder	-3012
▁tricks	-3013
▁fis	-3014
▁melt	-3015
▁crystal	-3016
▁tag	-3017
▁compass	-3018
▁meant	-3019
▁lit	-3020
▁tire	-3021
▁yogurt	-3022
▁disappointed	-3023
▁bicy	-3024
▁rep	-3025
▁Poppy	-3026
▁twig	-3027
aff	-3028
▁trap	-3029
▁stream	-3030
▁create	-3031
▁load	-3032
▁coins	-3033
▁harsh	-3034
▁quarrel	-3035
▁tooth	-3036
▁barber	-3037
ellig	-3038
▁pale	-3039
▁wheat	-3040
▁shade	-3041
▁restless	-3042
▁flashlight	-3043
▁intellig	-3044
▁forward	-3045
▁feathers	-3046
▁cocoa	-3047
▁compassion	-3048
▁persistent	-3049
▁deaf	-3050
▁spend	-3051
▁avoc	-3052
lcan	-3053
tti	-3054
aghe	-3055
aghetti	-3056
▁pro	-3057
▁computer	-3058
▁practiced	-3059
▁scoot	-3060
▁tur	-3061
▁shape	-3062
▁Pipp	-3063
▁triangle	-3064
azz	-3065
ither	-3066
▁pow	-3067
▁accident	-3068
ye	-3069
lcano	-3070
aze	-3071
ging	-3072
▁collar	-3073
▁deliver	-3074
▁rice	-3075
hip	-3076
▁trunk	-3077
ubby	-3078
▁roof	-3079
▁glove	-3080
▁vi	-3081
▁charm	-3082
▁whispered	-3083
▁speed	-3084
▁sailed	-3085
▁rid	-3086
▁beetle	-3087
▁turkey	-3088
ube	-3089
ital	-3090
▁week	-3091
▁spaghetti	-3092
▁cop	-3093
▁bees	-3094
▁stronger	-3095
▁friendship	-3096
▁cush	-3097
▁hosp	-3098
▁dreams	-3099
▁Bet	-3100
▁hospital	-3101
▁dust	-3102
▁engine	-3103
▁office	-3104
▁intelligent	-3105
asses	-3106
▁Mummy	-3107
▁aeroplane	-3108
▁thief	-3109
▁desk	-3110
zzy	-3111
▁volcano	-3112
▁ticket	-3113
ccol	-3114
ulif	-3115
ccoli	-3116
▁half	-3117
▁licked	-3118
▁numbers	-3119
▁regular	-3120
▁mug	-3121
▁pigeon	-3122
▁Dan	-3123
▁sheet	-3124
▁carp	-3125
▁tap	-3126
▁returned	-3127
▁gifted	-3128
▁coo	-3129
▁chubby	-3130
▁spell	-3131
▁envious	-3132
olin	-3133
▁rode	-3134
▁eraser	-3135
▁celebrate	-3136
▁base	-3137
▁vine	-3138
▁caulif	-3139
▁giving	-3140
opard	-3141
▁loop	-3142
▁yaw	-3143
▁knot	-3144
▁Alice	-3145
▁attract	-3146
▁onion	-3147
▁haircut	-3148
isted	-3149
▁carpet	-3150
▁spun	-3151
atient	-3152
▁truth	-3153
dge	-3154
▁boxes	-3155
▁excite	-3156
ulb	-3157
▁nicely	-3158
▁deter	-3159
▁decide	-3160
weet	-3161
▁louder	-3162
▁charming	-3163
▁alert	-3164
▁crawl	-3165
▁uncle	-3166
▁judge	-3167
▁shrimp	-3168
▁scatter	-3169
▁prun	-3170
rework	-3171
▁bicycle	-3172
▁tube	-3173
▁case	-3174
▁determ	-3175
▁mitten	-3176
omes	-3177
▁graceful	-3178
▁cauliflower	-3179
▁compassionate	-3180
▁bri	-3181
▁acce	-3182
▁bulb	-3183
▁soldier	-3184
▁question	-3185
▁attractive	-3186
▁Polly	-3187
▁order	-3188
▁broccoli	-3189
▁sleeping	-3190
▁envel	-3191
asing	-3192
▁peach	-3193
ulu	-3194
▁leopard	-3195
cycle	-3196
▁rag	-3197
▁vide	-3198
▁planet	-3199
▁OK	-3200
▁ways	-3201
▁sle	-3202
▁track	-3203
▁mill	-3204
▁saus	-3205
▁lying	-3206
chair	-3207
▁marry	-3208
▁destro	-3209
▁competitive	-3210
▁violin	-3211
▁eventually	-3212
▁firework	-3213
Go	-3214
▁ears	-3215
▁oat	-3216
orable	-3217
▁Sh	-3218
ache	-3219
▁shells	-3220
▁univer	-3221
▁learning	-3222
igator	-3223
▁walls	-3224
▁happening	-3225
▁meat	-3226
▁impatient	-3227
tern	-3228
▁distant	-3229
▁dolphin	-3230
▁pengu	-3231
▁armchair	-3232
▁purse	-3233
▁Tina	-3234
▁Pet	-3235
▁Lulu	-3236
dom	-3237
▁lively	-3238
▁adorable	-3239
anger	-3240
▁inse	-3241
▁rubbed	-3242
▁poem	-3243
▁grown	-3244
▁chalk	-3245
▁bounced	-3246
Sue	-3247
▁float	-3248
▁behave	-3249
▁cleaning	-3250
elery	-3251
▁skin	-3252
▁cricket	-3253
▁alligator	-3254
vator	-3255
essie	-3256
▁parade	-3257
▁scooter	-3258
▁wheels	-3259
▁skip	-3260
▁folder	-3261
▁elevator	-3262
bul	-3263
▁surf	-3264
▁curt	-3265
▁stum	-3266
▁travel	-3267
▁bin	-3268
▁hook	-3269
▁curtain	-3270
▁film	-3271
▁unlock	-3272
▁tem	-3273
aged	-3274
▁barrel	-3275
▁spinning	-3276
bulance	-3277
▁soar	-3278
▁metal	-3279
▁ambulance	-3280
ebra	-3281
▁herb	-3282
▁pit	-3283
▁insect	-3284
▁skipped	-3285
▁shut	-3286
▁Miss	-3287
▁impro	-3288
▁guard	-3289
▁cooked	-3290
▁cushion	-3291
acht	-3292
▁enc	-3293
▁Rob	-3294
▁compl	-3295
▁sweater	-3296
▁tray	-3297
▁chain	-3298
▁celery	-3299
▁bags	-3300
▁club	-3301
▁dive	-3302
▁bandage	-3303
▁themselves	-3304
ebook	-3305
▁station	-3306
▁notebook	-3307
rage	-3308
▁pony	-3309
▁sniff	-3310
▁motorcycle	-3311
▁yacht	-3312
▁envelope	-3313
▁mint	-3314
▁homes	-3315
▁avocado	-3316
▁diary	-3317
illa	-3318
▁ignorant	-3319
▁ed	-3320
▁counting	-3321
▁library	-3322
ention	-3323
▁playground	-3324
▁Pete	-3325
▁seal	-3326
▁steak	-3327
▁pattern	-3328
Sp	-3329
▁laughs	-3330
▁screen	-3331
▁Fo	-3332
▁mixer	-3333
▁zebra	-3334
nger	-3335
▁football	-3336
ision	-3337
▁biggest	-3338
▁gathered	-3339
lies	-3340
▁speak	-3341
▁bushes	-3342
Give	-3343
▁slept	-3344
▁tummy	-3345
▁needle	-3346
▁wallet	-3347
ject	-3348
▁post	-3349
▁radish	-3350
▁falls	-3351
▁destroy	-3352
▁saying	-3353
▁decorate	-3354
▁jellyfish	-3355
quit	-3356
▁send	-3357
▁earth	-3358
▁resc	-3359
▁loudly	-3360
quito	-3361
▁salt	-3362
▁buttons	-3363
▁Cl	-3364
▁cord	-3365
▁lights	-3366
▁modest	-3367
▁journal	-3368
▁trucks	-3369
▁fu	-3370
▁ink	-3371
▁attic	-3372
▁vest	-3373
▁mos	-3374
▁Betty	-3375
▁flea	-3376
▁prep	-3377
▁mosquito	-3378
▁bump	-3379
▁pointing	-3380
▁once	-3381
▁enth	-3382
▁lime	-3383
▁wiped	-3384
▁showing	-3385
▁father	-3386
▁screw	-3387
ceed	-3388
▁Birdy	-3389
▁Susie	-3390
▁city	-3391
usia	-3392
▁distur	-3393
▁enthusia	-3394
▁root	-3395
▁itch	-3396
▁knows	-3397
irit	-3398
▁temp	-3399
▁skull	-3400
htub	-3401
▁split	-3402
▁kay	-3403
▁forth	-3404
▁hipp	-3405
▁polish	-3406
▁bathtub	-3407
▁nurse	-3408
▁added	-3409
▁means	-3410
▁whenever	-3411
▁pirate	-3412
▁determined	-3413
▁stranger	-3414
ament	-3415
ophone	-3416
▁complain	-3417
ushed	-3418
kele	-3419
▁ple	-3420
keleton	-3421
▁sneeze	-3422
▁reading	-3423
▁brothers	-3424
?".	-3425
▁pole	-3426
▁teleph	-3427
ctop	-3428
▁hedge	-3429
▁strawberry	-3430
▁yet	-3431
▁wife	-3432
▁support	-3433
▁kayak	-3434
▁muffin	-3435
▁oy	-3436
▁driving	-3437
▁hunter	-3438
▁cartoon	-3439
Well	-3440
▁switch	-3441
▁disappeared	-3442
oby	-3443
▁aut	-3444
uring	-3445
▁succeed	-3446
▁suggest	-3447
ctopus	-3448
▁shield	-3449
▁telephone	-3450
▁calling	-3451
▁orn	-3452
▁ornament	-3453
▁flame	-3454
▁spear	-3455
▁tripped	-3456
ophy	-3457
▁makeup	-3458
▁cups	-3459
▁zipp	-3460
▁Rose	-3461
▁vend	-3462
▁hippo	-3463
obile	-3464
Bye	-3465
▁micr	-3466
▁trophy	-3467
ric	-3468
under	-3469
▁poke	-3470
ines	-3471
omobile	-3472
umb	-3473
▁repe	-3474
▁People	-3475
▁octopus	-3476
▁cupboard	-3477
▁penny	-3478
par	-3479
▁math	-3480
▁yoga	-3481
▁golf	-3482
▁managed	-3483
▁automobile	-3484
otter	-3485
▁stairs	-3486
▁wishes	-3487
▁glowing	-3488
▁microphone	-3489
▁growl	-3490
▁otter	-3491
▁powder	-3492
▁gor	-3493
▁Tweet	-3494
▁skeleton	-3495
▁complet	-3496
work	-3497
▁led	-3498
▁mild	-3499
▁vendor	-3500
old	-3501
▁coal	-3502
▁grapes	-3503
Spot	-3504
▁cable	-3505
▁edge	-3506
▁video	-3507
▁matt	-3508
▁repair	-3509
▁pear	-3510
web	-3511
iron	-3512
ait	-3513
▁Sunny	-3514
▁encou	-3515
obweb	-3516
▁maze	-3517
▁handle	-3518
Re	-3519
▁sung	-3520
▁slides	-3521
time	-3522
case	-3523
utes	-3524
aving	-3525
▁pine	-3526
urch	-3527
,”	-3528
▁pastry	-3529
▁ribb	-3530
▁drawer	-3531
▁gasp	-3532
▁cobweb	-3533
▁arg	-3534
▁safely	-3535
▁missile	-3536
hin	-3537
▁ok	-3538
keep	-3539
esday	-3540
▁chess	-3541
▁pun	-3542
▁colour	-3543
stic	-3544
▁leash	-3545
▁meadow	-3546
▁mattress	-3547
▁medal	-3548
▁separ	-3549
▁hall	-3550
▁waffle	-3551
▁camp	-3552
▁kindness	-3553
▁Snow	-3554
▁frame	-3555
▁veil	-3556
▁itself	-3557
ctory	-3558
▁stack	-3559
lasses	-3560
▁knock	-3561
▁enthusiastic	-3562
▁knight	-3563
▁Toby	-3564
▁rolling	-3565
cing	-3566
▁minutes	-3567
▁basketball	-3568
▁gear	-3569
ature	-3570
▁factory	-3571
▁baseball	-3572
▁sunglasses	-3573
▁drawings	-3574
▁flour	-3575
▁cooler	-3576
▁spirit	-3577
▁packed	-3578
▁Zoom	-3579
▁those	-3580
▁grill	-3581
▁shocked	-3582
▁rhin	-3583
▁church	-3584
▁strugg	-3585
place	-3586
▁five	-3587
▁Pippin	-3588
enny	-3589
▁magaz	-3590
▁Look	-3591
▁sailor	-3592
hic	-3593
▁marched	-3594
▁rot	-3595
▁vehic	-3596
▁task	-3597
▁gorilla	-3598
fee	-3599
ately	-3600
ugged	-3601
▁remain	-3602
▁sandbox	-3603
▁package	-3604
offee	-3605
▁patch	-3606
iew	-3607
▁rever	-3608
▁eye	-3609
▁tear	-3610
▁realised	-3611
▁steps	-3612
▁perm	-3613
▁sight	-3614
▁giggled	-3615
▁fireman	-3616
▁early	-3617
head	-3618
▁oft	-3619
▁view	-3620
▁often	-3621
▁lotion	-3622
▁sausage	-3623
▁ow	-3624
rosc	-3625
essert	-3626
ne	-3627
▁tools	-3628
▁oyster	-3629
▁costume	-3630
▁thunder	-3631
▁weep	-3632
asher	-3633
chor	-3634
▁bananas	-3635
▁cooking	-3636
▁dessert	-3637
▁barking	-3638
▁pretending	-3639
istol	-3640
aky	-3641
apers	-3642
▁lend	-3643
roscope	-3644
washer	-3645
▁penguin	-3646
▁Spike	-3647
▁sne	-3648
▁sett	-3649
anda	-3650
arian	-3651
▁quit	-3652
▁grandpa	-3653
eer	-3654
▁file	-3655
▁iron	-3656
▁ward	-3657
▁staff	-3658
▁hanger	-3659
▁dishwasher	-3660
keeper	-3661
▁fireplace	-3662
ense	-3663
▁either	-3664
▁wardrobe	-3665
▁pee	-3666
▁Next	-3667
ilot	-3668
▁short	-3669
ination	-3670
▁Give	-3671
▁anchor	-3672
▁newsp	-3673
▁photo	-3674
▁trash	-3675
ailable	-3676
▁ur	-3677
▁cane	-3678
▁mem	-3679
▁ten	-3680
▁hoc	-3681
▁Kim	-3682
▁hockey	-3683
azor	-3684
eros	-3685
▁bathe	-3686
▁opens	-3687
ron	-3688
▁Teddy	-3689
▁reward	-3690
▁napkin	-3691
▁Zip	-3692
▁hotel	-3693
▁laser	-3694
▁pistol	-3695
▁gain	-3696
seum	-3697
▁spilled	-3698
▁may	-3699
ready	-3700
▁excitement	-3701
▁size	-3702
▁coffee	-3703
▁Before	-3704
▁Bessie	-3705
▁museum	-3706
▁reind	-3707
▁temple	-3708
oceros	-3709
▁towers	-3710
▁hut	-3711
▁cell	-3712
▁available	-3713
▁bill	-3714
▁thinking	-3715
▁hanging	-3716
▁telling	-3717
▁passport	-3718
▁wool	-3719
▁already	-3720
vice	-3721
▁hours	-3722
▁battery	-3723
▁dreamed	-3724
▁sub	-3725
▁fingers	-3726
▁hive	-3727
▁mule	-3728
▁whip	-3729
▁rise	-3730
▁reindeer	-3731
▁juicy	-3732
▁jewelry	-3733
▁ax	-3734
▁laund	-3735
▁enjoying	-3736
▁Everywhere	-3737
▁skirt	-3738
▁taller	-3739
▁Grandpa	-3740
▁laundry	-3741
▁valu	-3742
See	-3743
▁rhinoceros	-3744
▁stumbled	-3745
▁discovered	-3746
cu	-3747
▁Un	-3748
aroo	-3749
body	-3750
angaroo	-3751
ucet	-3752
▁pilot	-3753
▁check	-3754
▁tornado	-3755
▁roared	-3756
htray	-3757
▁Here	-3758
play	-3759
▁faucet	-3760
▁improve	-3761
▁picking	-3762
▁Mandy	-3763
▁Mar	-3764
▁miner	-3765
Wait	-3766
▁oil	-3767
▁oak	-3768
▁kangaroo	-3769
▁shrink	-3770
▁listening	-3771
▁blackboard	-3772
▁axe	-3773
▁notice	-3774
ney	-3775
▁Co	-3776
▁mummy	-3777
▁cows	-3778
▁perfume	-3779
Is	-3780
▁unpack	-3781
▁zipper	-3782
▁bathrobe	-3783
▁microscope	-3784
▁hurry	-3785
ik	-3786
There	-3787
▁allowed	-3788
▁imagine	-3789
▁cardboard	-3790
▁rake	-3791
▁jokes	-3792
▁complete	-3793
▁organize	-3794
▁fisher	-3795
▁silver	-3796
▁magazine	-3797
loo	-3798
ilet	-3799
▁holds	-3800
▁fog	-3801
zag	-3802
▁names	-3803
▁stickers	-3804
▁Mrs	-3805
▁novel	-3806
▁Dolly	-3807
▁ig	-3808
▁holes	-3809
▁igloo	-3810
▁ashtray	-3811
▁jumps	-3812
▁men	-3813
▁practice	-3814
▁climbing	-3815
igzag	-3816
▁toilet	-3817
▁display	-3818
▁prov	-3819
iction	-3820
▁opera	-3821
▁stirred	-3822
▁blin	-3823
▁snap	-3824
▁sparkly	-3825
ictionary	-3826
▁fastest	-3827
reek	-3828
▁object	-3829
▁chim	-3830
▁billboard	-3831
▁creek	-3832
▁helper	-3833
come	-3834
▁freez	-3835
▁message	-3836
▁swinging	-3837
arry	-3838
▁pal	-3839
▁chose	-3840
▁papers	-3841
▁chimney	-3842
▁tub	-3843
▁trail	-3844
iest	-3845
▁gasped	-3846
▁popped	-3847
aches	-3848
▁falling	-3849
▁ext	-3850
▁attach	-3851
▁vehicle	-3852
▁offered	-3853
▁advice	-3854
▁subway	-3855
▁butterflies	-3856
▁happier	-3857
▁distance	-3858
▁oats	-3859
▁pressed	-3860
ampoo	-3861
▁bikes	-3862
▁tuna	-3863
aid	-3864
▁fuel	-3865
▁fisherman	-3866
▁bury	-3867
▁newspaper	-3868
affe	-3869
▁lie	-3870
▁rece	-3871
▁weigh	-3872
▁valuable	-3873
umber	-3874
stairs	-3875
uper	-3876
▁bookcase	-3877
▁razor	-3878
▁palace	-3879
gen	-3880
Ow	-3881
▁por	-3882
▁dictionary	-3883
▁blouse	-3884
▁sym	-3885
▁tease	-3886
bol	-3887
vision	-3888
▁pinch	-3889
ured	-3890
▁letters	-3891
▁stretched	-3892
▁Bow	-3893
▁obser	-3894
▁rubber	-3895
▁knob	-3896
▁gym	-3897
▁Mike	-3898
aurant	-3899
▁shaking	-3900
▁musician	-3901
▁symbol	-3902
▁restaurant	-3903
iches	-3904
▁ped	-3905
▁lightning	-3906
ola	-3907
▁sandwiches	-3908
▁cherries	-3909
▁anyway	-3910
▁against	-3911
▁cabinet	-3912
▁nature	-3913
▁television	-3914
▁neat	-3915
▁stared	-3916
▁Are	-3917
▁spoke	-3918
▁shampoo	-3919
▁circles	-3920
▁boots	-3921
▁trade	-3922
▁resist	-3923
▁giraffe	-3924
▁comfort	-3925
▁serve	-3926
▁airport	-3927
▁hung	-3928
ival	-3929
▁Pandy	-3930
ef	-3931
▁disag	-3932
lter	-3933
te	-3934
▁beef	-3935
▁lip	-3936
alend	-3937
▁Big	-3938
▁rail	-3939
ium	-3940
▁son	-3941
▁calend	-3942
▁tut	-3943
▁shelter	-3944
ogn	-3945
▁alarm	-3946
▁porch	-3947
▁slipp	-3948
▁stops	-3949
▁buckle	-3950
▁fest	-3951
▁tightly	-3952
▁panda	-3953
▁recogn	-3954
res	-3955
Ouch	-3956
asis	-3957
▁extra	-3958
▁birdc	-3959
▁frogs	-3960
▁soil	-3961
▁bookshe	-3962
▁leaving	-3963
▁sweetie	-3964
▁incl	-3965
▁growing	-3966
omed	-3967
▁cards	-3968
▁birdcage	-3969
▁swamp	-3970
▁belongs	-3971
fast	-3972
▁calendar	-3973
▁gas	-3974
▁Bub	-3975
▁Where	-3976
▁reverse	-3977
▁wipe	-3978
▁tutor	-3979
▁bookshelf	-3980
▁blueberries	-3981
▁rescue	-3982
▁painter	-3983
▁Lola	-3984
▁doesn	-3985
▁Ellie	-3986
▁oasis	-3987
▁rules	-3988
▁breakfast	-3989
▁agree	-3990
▁squirrels	-3991
They	-3992
▁super	-3993
▁freezer	-3994
▁Dave	-3995
!".	-3996
iform	-3997
▁pleased	-3998
▁uniform	-3999
▁festival	-4000
▁disturb	-4001
▁sounded	-4002
bles	-4003
▁Boun	-4004
▁ins	-4005
▁crib	-4006
▁mustache	-4007
▁riding	-4008
▁anywhere	-4009
▁cliff	-4010
▁poked	-4011
▁separate	-4012
▁carrying	-4013
▁pastel	-4014
▁peek	-4015
▁sof	-4016
▁hate	-4017
▁happens	-4018
▁Johnny	-4019
▁Bill	-4020
▁refused	-4021
▁lic	-4022
▁chance	-4023
▁Lee	-4024
▁sofa	-4025
▁ceiling	-4026
▁V	-4027
▁reef	-4028
aspoon	-4029
▁drain	-4030
▁squeeze	-4031
▁waste	-4032
▁fort	-4033
xy	-4034
med	-4035
▁Buzzy	-4036
▁peeked	-4037
▁ahead	-4038
▁lawy	-4039
▁theater	-4040
▁furn	-4041
la	-4042
▁berry	-4043
▁swung	-4044
adium	-4045
iture	-4046
▁weather	-4047
▁goal	-4048
▁model	-4049
▁stadium	-4050
rmomet	-4051
▁lawn	-4052
▁invite	-4053
▁furniture	-4054
▁teaspoon	-4055
▁accidentally	-4056
▁page	-4057
▁dreaming	-4058
▁dancer	-4059
Dad	-4060
▁stom	-4061
rmometer	-4062
stri	-4063
ience	-4064
▁winter	-4065
▁searching	-4066
▁olive	-4067
▁blinked	-4068
iki	-4069
ummer	-4070
▁junk	-4071
▁stable	-4072
▁quiz	-4073
▁bent	-4074
▁license	-4075
astic	-4076
▁jail	-4077
▁admire	-4078
▁disappear	-4079
▁Eventually	-4080
▁accept	-4081
▁leaned	-4082
▁repeat	-4083
▁ribbon	-4084
▁brick	-4085
▁beep	-4086
render	-4087
▁above	-4088
▁shower	-4089
▁twir	-4090
na	-4091
▁bet	-4092
▁trains	-4093
▁mistakes	-4094
▁suff	-4095
▁imagined	-4096
▁respectful	-4097
▁lawyer	-4098
▁starts	-4099
Did	-4100
▁prevent	-4101
▁sent	-4102
▁sunset	-4103
▁Spe	-4104
▁Jazz	-4105
▁grape	-4106
▁Freddy	-4107
▁lid	-4108
▁slip	-4109
uggage	-4110
eterin	-4111
▁handed	-4112
▁zoomed	-4113
eterinarian	-4114
▁meeting	-4115
▁suggested	-4116
veal	-4117
▁cudd	-4118
▁surprises	-4119
▁Red	-4120
ations	-4121
▁lumber	-4122
▁luggage	-4123
ected	-4124
night	-4125
▁missing	-4126
▁veterinarian	-4127
▁Pa	-4128
▁Binky	-4129
▁thermometer	-4130
aked	-4131
thank	-4132
▁apron	-4133
▁favour	-4134
He	-4135
▁fixing	-4136
▁fought	-4137
▁puddles	-4138
rod	-4139
▁incre	-4140
▁reveal	-4141
▁problems	-4142
▁pair	-4143
ison	-4144
▁Soph	-4145
▁wigg	-4146
▁frowned	-4147
▁steam	-4148
▁introd	-4149
▁pages	-4150
▁caring	-4151
▁ostri	-4152
▁chasing	-4153
▁grand	-4154
▁Carl	-4155
▁sadly	-4156
▁weap	-4157
▁Bubbles	-4158
▁favourite	-4159
▁wine	-4160
▁matches	-4161
▁unite	-4162
▁shouts	-4163
▁summer	-4164
amber	-4165
▁Kiki	-4166
▁warned	-4167
▁Pat	-4168
cuss	-4169
iday	-4170
▁classroom	-4171
▁windows	-4172
▁delighted	-4173
angu	-4174
▁Ow	-4175
alley	-4176
▁lions	-4177
▁mineral	-4178
▁brightly	-4179
▁plates	-4180
▁remove	-4181
▁spoil	-4182
▁yield	-4183
Your	-4184
riger	-4185
▁langu	-4186
rigerator	-4187
▁refrigerator	-4188
low	-4189
▁ranch	-4190
▁valley	-4191
▁discuss	-4192
▁grabs	-4193
▁choice	-4194
ricane	-4195
▁regret	-4196
▁monkeys	-4197
▁Lilly	-4198
▁Charl	-4199
▁rushed	-4200
▁label	-4201
▁older	-4202
eor	-4203
▁delay	-4204
▁pulls	-4205
▁chamber	-4206
▁inf	-4207
▁hol	-4208
▁holiday	-4209
sity	-4210
▁human	-4211
mend	-4212
▁art	-4213
▁argue	-4214
▁finds	-4215
olog	-4216
▁player	-4217
▁country	-4218
▁doors	-4219
▁aw	-4220
ommend	-4221
▁socks	-4222
▁ostrich	-4223
▁recommend	-4224
▁rac	-4225
▁Paul	-4226
▁spade	-4227
▁admired	-4228
▁Geor	-4229
▁mall	-4230
▁excitedly	-4231
▁Y	-4232
▁Hel	-4233
ucture	-4234
▁apolog	-4235
▁plastic	-4236
▁structure	-4237
▁Olive	-4238
▁reminded	-4239
▁Ab	-4240
Ann	-4241
▁harb	-4242
▁appl	-4243
▁pushing	-4244
▁beg	-4245
▁raise	-4246
▁putting	-4247
▁sneezed	-4248
▁rained	-4249
▁supply	-4250
▁kinds	-4251
▁cur	-4252
▁harbor	-4253
▁chairs	-4254
▁slippery	-4255
vet	-4256
ecause	-4257
▁prepare	-4258
▁surrender	-4259
▁Zoomy	-4260
▁George	-4261
▁ignore	-4262
▁restore	-4263
▁Speedy	-4264
▁evening	-4265
▁proudly	-4266
▁hurricane	-4267
elcome	-4268
chan	-4269
▁hoping	-4270
▁panic	-4271
icer	-4272
wards	-4273
▁leak	-4274
▁colourful	-4275
▁fre	-4276
▁tip	-4277
▁meas	-4278
Yuck	-4279
▁shone	-4280
▁pup	-4281
▁sniffed	-4282
▁mystery	-4283
▁claw	-4284
▁saving	-4285
▁gro	-4286
▁sudden	-4287
▁dare	-4288
▁weapon	-4289
▁lives	-4290
▁shakes	-4291
cast	-4292
acked	-4293
▁unh	-4294
▁provide	-4295
▁sandcast	-4296
▁forgave	-4297
chanic	-4298
▁strip	-4299
▁points	-4300
▁shoulder	-4301
▁smells	-4302
Yay	-4303
rise	-4304
▁sticker	-4305
▁throwing	-4306
▁mechanic	-4307
Anna	-4308
▁infant	-4309
▁cared	-4310
▁flies	-4311
▁dishes	-4312
▁replace	-4313
ari	-4314
aud	-4315
▁softly	-4316
▁chickens	-4317
lex	-4318
▁meowed	-4319
oof	-4320
▁row	-4321
▁barks	-4322
▁clapping	-4323
▁x	-4324
▁bend	-4325
▁score	-4326
▁copper	-4327
▁keeping	-4328
▁heads	-4329
One	-4330
▁language	-4331
▁sunrise	-4332
ero	-4333
▁event	-4334
▁shovel	-4335
▁Charlie	-4336
▁dear	-4337
▁laught	-4338
▁shivering	-4339
oe	-4340
▁sport	-4341
▁enter	-4342
▁planes	-4343
▁prune	-4344
▁suffer	-4345
▁pushes	-4346
▁unhappy	-4347
▁laughter	-4348
▁Under	-4349
▁Would	-4350
▁trem	-4351
▁shrugged	-4352
▁dem	-4353
▁ener	-4354
hero	-4355
Mia	-4356
▁fresh	-4357
▁Joey	-4358
▁giggle	-4359
▁thanks	-4360
▁splashing	-4361
▁superhero	-4362
▁castles	-4363
▁freeze	-4364
cond	-4365
▁mass	-4366
▁sprayed	-4367
▁End	-4368
▁thumb	-4369
imed	-4370
year	-4371
▁second	-4372
▁Ted	-4373
▁brighter	-4374
▁port	-4375
▁ended	-4376
▁kneel	-4377
▁applaud	-4378
▁letting	-4379
▁courage	-4380
▁Sk	-4381
ason	-4382
▁Annie	-4383
▁demand	-4384
▁wre	-4385
ince	-4386
▁breat	-4387
▁Alex	-4388
▁navy	-4389
▁cherry	-4390
▁chirp	-4391
cer	-4392
icky	-4393
▁skill	-4394
▁feelings	-4395
▁stud	-4396
▁rooms	-4397
▁flood	-4398
▁Danny	-4399
▁Grace	-4400
▁eaten	-4401
▁given	-4402
▁sticky	-4403
▁mention	-4404
▁breaks	-4405
▁Or	-4406
Qu	-4407
apping	-4408
▁parts	-4409
▁steel	-4410
▁throws	-4411
ement	-4412
▁coats	-4413
▁trusted	-4414
▁content	-4415
▁sparkled	-4416
ges	-4417
▁sigh	-4418
▁bears	-4419
Ready	-4420
igi	-4421
ating	-4422
ially	-4423
▁menu	-4424
▁squeezed	-4425
▁alive	-4426
▁yawned	-4427
▁raining	-4428
▁Bee	-4429
▁Elly	-4430
▁equ	-4431
▁invit	-4432
▁pirates	-4433
▁starting	-4434
▁bouncing	-4435
▁jogged	-4436
▁flapped	-4437
spec	-4438
▁warn	-4439
▁greedy	-4440
erc	-4441
▁spots	-4442
▁poison	-4443
▁Gigi	-4444
▁wreck	-4445
▁Hen	-4446
▁pigs	-4447
▁Hoppy	-4448
specially	-4449
▁impressed	-4450
▁university	-4451
▁vac	-4452
▁explored	-4453
▁universe	-4454
▁Finny	-4455
▁Tilly	-4456
ib	-4457
▁bumped	-4458
▁streng	-4459
▁Sophie	-4460
▁badly	-4461
▁drops	-4462
quest	-4463
▁energy	-4464
▁Coco	-4465
▁settle	-4466
▁examine	-4467
▁strength	-4468
▁Help	-4469
▁placed	-4470
▁rabbits	-4471
▁ing	-4472
▁rush	-4473
▁snowball	-4474
men	-4475
▁Henry	-4476
▁sandcastle	-4477
heart	-4478
▁scold	-4479
▁especially	-4480
▁ignored	-4481
redient	-4482
▁ingredient	-4483
▁exerc	-4484
▁punish	-4485
▁observe	-4486
▁request	-4487
▁offer	-4488
▁minute	-4489
▁Su	-4490
▁snugg	-4491
▁checked	-4492
▁buzz	-4493
▁somewhere	-4494
▁claws	-4495
▁expect	-4496
izes	-4497
▁waving	-4498
▁leather	-4499
Sh	-4500
▁Harry	-4501
otten	-4502
▁news	-4503
▁paid	-4504
▁burned	-4505
▁rhy	-4506
▁prunes	-4507
▁sir	-4508
▁Snowy	-4509
▁nation	-4510
▁brain	-4511
▁myself	-4512
▁soak	-4513
▁hills	-4514
▁prayed	-4515
▁imagination	-4516
..	-4517
▁calls	-4518
▁cheek	-4519
▁horses	-4520
▁yawn	-4521
▁vacation	-4522
▁Finn	-4523
▁baking	-4524
▁insisted	-4525
▁sweetheart	-4526
▁Ros	-4527
▁believed	-4528
▁tracks	-4529
▁crossed	-4530
thm	-4531
▁tide	-4532
▁network	-4533
▁scratch	-4534
▁toe	-4535
ween	-4536
▁upstairs	-4537
▁Fox	-4538
▁hist	-4539
ipment	-4540
▁price	-4541
▁Sm	-4542
▁lemonade	-4543
▁gaz	-4544
▁tour	-4545
▁Mill	-4546
▁history	-4547
▁equipment	-4548
▁stomach	-4549
▁between	-4550
reat	-4551
▁strawberries	-4552
▁blowing	-4553
▁introduce	-4554
▁beauty	-4555
isty	-4556
▁moves	-4557
▁sew	-4558
▁entered	-4559
▁tug	-4560
▁heat	-4561
▁Lucky	-4562
▁increase	-4563
▁beans	-4564
▁massage	-4565
▁See	-4566
▁backpack	-4567
inking	-4568
▁Whenever	-4569
▁nobody	-4570
quake	-4571
▁twisted	-4572
▁ingredients	-4573
▁easily	-4574
▁safari	-4575
▁bother	-4576
▁Owl	-4577
▁rhythm	-4578
apa	-4579
▁pad	-4580
▁Penny	-4581
edn	-4582
ednesday	-4583
▁Sque	-4584
▁poppy	-4585
▁tremble	-4586
▁hearts	-4587
▁Wednesday	-4588
▁earthquake	-4589
noon	-4590
▁afternoon	-4591
ippy	-4592
riage	-4593
▁palm	-4594
▁shopkeeper	-4595
▁luck	-4596
resses	-4597
▁following	-4598
▁sty	-4599
▁lemons	-4600
▁Is	-4601
hest	-4602
▁buried	-4603
▁Ru	-4604
ecting	-4605
▁permit	-4606
▁pedal	-4607
▁pur	-4608
unday	-4609
▁Millie	-4610
house	-4611
▁daisy	-4612
▁yucky	-4613
▁Sunday	-4614
▁writing	-4615
mare	-4616
▁scoop	-4617
▁Pip	-4618
reeze	-4619
▁Zara	-4620
▁racing	-4621
▁Dog	-4622
▁teaching	-4623
▁blueberry	-4624
▁Maria	-4625
▁chewed	-4626
▁strike	-4627
arnt	-4628
▁slap	-4629
▁learnt	-4630
ffic	-4631
▁Mag	-4632
emember	-4633
anges	-4634
▁include	-4635
▁pitch	-4636
▁deeper	-4637
▁wisdom	-4638
▁candles	-4639
▁growled	-4640
eration	-4641
▁Kate	-4642
▁dresses	-4643
▁shouting	-4644
rec	-4645
▁conf	-4646
▁furt	-4647
▁whistled	-4648
▁nightmare	-4649
▁spike	-4650
▁Bounce	-4651
▁attention	-4652
▁chore	-4653
uct	-4654
▁stair	-4655
▁bouncy	-4656
▁cub	-4657
▁floated	-4658
▁wags	-4659
▁weight	-4660
▁pulling	-4661
▁traffic	-4662
▁fallen	-4663
▁planned	-4664
▁marriage	-4665
▁comf	-4666
▁mailman	-4667
▁excla	-4668
▁vroom	-4669
▁encourage	-4670
▁urge	-4671
tain	-4672
▁simp	-4673
▁neighbour	-4674
nce	-4675
▁winning	-4676
▁zigzag	-4677
▁whisper	-4678
▁Have	-4679
ittens	-4680
Welcome	-4681
xygen	-4682
▁Froggy	-4683
look	-4684
▁exclaimed	-4685
▁further	-4686
▁mice	-4687
▁chores	-4688
▁puzzles	-4689
▁acorns	-4690
▁Sharing	-4691
▁crash	-4692
reci	-4693
▁scrat	-4694
▁–	-4695
▁Tony	-4696
▁James	-4697
▁below	-4698
▁image	-4699
▁recognize	-4700
▁Tw	-4701
▁Rock	-4702
igging	-4703
ips	-4704
▁appreci	-4705
Lucy	-4706
▁sizes	-4707
▁twisty	-4708
▁Mittens	-4709
▁snail	-4710
▁warning	-4711
▁Kat	-4712
sed	-4713
Woof	-4714
▁digging	-4715
cery	-4716
▁Who	-4717
▁Good	-4718
▁Papa	-4719
▁grocery	-4720
▁underground	-4721
▁heel	-4722
▁ideas	-4723
▁exercise	-4724
▁folded	-4725
▁closely	-4726
Sara	-4727
▁landscape	-4728
▁quietly	-4729
ipping	-4730
▁exper	-4731
▁vanished	-4732
▁mama	-4733
▁counter	-4734
▁washing	-4735
▁dressed	-4736
▁blood	-4737
▁plays	-4738
▁marbles	-4739
To	-4740
▁Bluey	-4741
▁hopes	-4742
▁peanuts	-4743
▁operation	-4744
▁agre	-4745
▁jazz	-4746
▁invitation	-4747
▁Tu	-4748
▁quite	-4749
▁Baby	-4750
▁follows	-4751
▁Ruby	-4752
▁Tuesday	-4753
▁oh	-4754
hood	-4755
ifi	-4756
▁Sandy	-4757
looking	-4758
Not	-4759
ories	-4760
▁gifts	-4761
▁licks	-4762
▁creatures	-4763
ops	-4764
▁Rosie	-4765
▁apart	-4766
▁memory	-4767
iggly	-4768
▁sprink	-4769
▁release	-4770
▁Jul	-4771
▁cape	-4772
▁shot	-4773
▁Pinky	-4774
▁shined	-4775
▁worms	-4776
▁solved	-4777
Will	-4778
▁worth	-4779
▁exit	-4780
▁receive	-4781
And	-4782
ucked	-4783
ddy	-4784
▁Fifi	-4785
▁hurting	-4786
▁planted	-4787
ecture	-4788
▁snuggled	-4789
▁elephants	-4790
▁dried	-4791
▁wob	-4792
▁lecture	-4793
▁fireworks	-4794
▁struggle	-4795
Bob	-4796
▁Each	-4797
▁Liz	-4798
▁glo	-4799
unately	-4800
pted	-4801
▁ble	-4802
▁sailing	-4803
▁married	-4804
▁hadn	-4805
▁style	-4806
▁crow	-4807
▁flap	-4808
gie	-4809
▁balan	-4810
▁eagerly	-4811
▁inst	-4812
▁during	-4813
▁Clara	-4814
▁King	-4815
▁gazed	-4816
▁golden	-4817
▁captain	-4818
▁fash	-4819
▁skills	-4820
▁Ste	-4821
raged	-4822
▁Squeaky	-4823
▁watered	-4824
▁scattered	-4825
▁resp	-4826
▁wandered	-4827
▁Wiggly	-4828
▁raised	-4829
▁reaches	-4830
right	-4831
▁brings	-4832
etch	-4833
▁gloves	-4834
▁catching	-4835
▁petals	-4836
▁pinched	-4837
▁wagging	-4838
▁Everything	-4839
▁First	-4840
▁bur	-4841
▁signs	-4842
▁fashion	-4843
oral	-4844
▁paused	-4845
▁accepted	-4846
▁Bo	-4847
▁kis	-4848
▁hits	-4849
▁kisses	-4850
▁forgotten	-4851
▁treasures	-4852
▁printer	-4853
▁scolded	-4854
▁manage	-4855
▁appear	-4856
▁baked	-4857
▁allow	-4858
urprise	-4859
▁seats	-4860
▁seeing	-4861
▁hers	-4862
choo	-4863
▁straight	-4864
▁sits	-4865
▁muddy	-4866
▁jogging	-4867
ups	-4868
medi	-4869
▁snapped	-4870
▁unlocked	-4871
mediately	-4872
▁hon	-4873
▁blink	-4874
▁breathe	-4875
▁zipped	-4876
▁Me	-4877
Because	-4878
▁bones	-4879
▁disagree	-4880
▁bricks	-4881
do	-4882
▁Pr	-4883
ssible	-4884
▁stuffed	-4885
▁Wally	-4886
▁kitty	-4887
▁oxygen	-4888
ux	-4889
▁rang	-4890
▁dared	-4891
▁tomatoes	-4892
▁difference	-4893
chie	-4894
ising	-4895
▁memories	-4896
▁God	-4897
▁isn	-4898
orted	-4899
▁sorts	-4900
▁toes	-4901
▁easier	-4902
▁lung	-4903
▁May	-4904
These	-4905
sters	-4906
▁vanish	-4907
uxu	-4908
▁Ro	-4909
▁Uncle	-4910
Surprise	-4911
rr	-4912
▁worse	-4913
▁vel	-4914
▁Qu	-4915
▁Spark	-4916
▁prints	-4917
▁nowhere	-4918
Yum	-4919
ccer	-4920
ived	-4921
▁simple	-4922
▁destroyed	-4923
▁understanding	-4924
▁bye	-4925
▁web	-4926
ester	-4927
▁cakes	-4928
▁soccer	-4929
▁velvet	-4930
esterday	-4931
▁trapped	-4932
iers	-4933
▁climbs	-4934
▁collected	-4935
▁bites	-4936
▁prett	-4937
▁oranges	-4938
▁attached	-4939
▁Dr	-4940
▁cutting	-4941
▁pears	-4942
▁emer	-4943
▁pies	-4944
▁luxu	-4945
▁fro	-4946
▁famil	-4947
▁sorting	-4948
mm	-4949
▁pillows	-4950
aped	-4951
▁welcomed	-4952
Ok	-4953
▁soldiers	-4954
bing	-4955
▁lined	-4956
▁waist	-4957
▁spoons	-4958
▁shouldn	-4959
Meow	-4960
▁ruin	-4961
▁Maggie	-4962
▁Out	-4963
▁blankets	-4964
▁winner	-4965
▁jewels	-4966
▁visited	-4967
▁bang	-4968
▁twirled	-4969
▁An	-4970
▁selling	-4971
▁ours	-4972
▁skipping	-4973
▁cras	-4974
▁kingdom	-4975
ah	-4976
▁tong	-4977
▁bowed	-4978
▁lets	-4979
▁muscles	-4980
▁season	-4981
▁voices	-4982
▁created	-4983
kins	-4984
▁encouraged	-4985
▁punished	-4986
▁Tuna	-4987
▁Suzy	-4988
▁grin	-4989
▁grant	-4990
▁floating	-4991
▁celebrated	-4992
▁west	-4993
fortunately	-4994
▁bleed	-4995
▁potatoes	-4996
▁vict	-4997
▁luxury	-4998
▁kicking	-4999
▁meow	-5000
▁result	-5001
▁guessed	-5002
▁none	-5003
▁Smith	-5004
ishing	-5005
▁immediately	-5006
▁sliding	-5007
▁weeping	-5008
▁Slow	-5009
▁trave	-5010
▁Both	-5011
▁herbs	-5012
▁pets	-5013
▁measured	-5014
aker	-5015
ction	-5016
▁warmth	-5017
▁Milly	-5018
▁urged	-5019
▁paints	-5020
▁These	-5021
▁Sky	-5022
▁tore	-5023
▁firef	-5024
▁brus	-5025
▁hurried	-5026
▁presents	-5027
sit	-5028
▁acted	-5029
ents	-5030
omeday	-5031
▁Moral	-5032
Next	-5033
▁since	-5034
▁experience	-5035
▁begged	-5036
▁opin	-5037
▁Zigzag	-5038
▁surround	-5039
▁Toto	-5040
▁marching	-5041
▁collection	-5042
osed	-5043
▁appro	-5044
icing	-5045
▁decorations	-5046
aded	-5047
▁east	-5048
▁fetch	-5049
▁melted	-5050
▁watches	-5051
▁mentioned	-5052
▁olives	-5053
▁studied	-5054
▁teasing	-5055
▁waffles	-5056
▁patterns	-5057
▁zero	-5058
▁slice	-5059
▁drinking	-5060
▁breaking	-5061
ring	-5062
▁sip	-5063
▁text	-5064
▁disagreed	-5065
▁esc	-5066
▁beds	-5067
▁lines	-5068
Amy	-5069
▁Its	-5070
▁peaches	-5071
▁Pepper	-5072
▁texture	-5073
▁shed	-5074
eep	-5075
une	-5076
▁someday	-5077
akes	-5078
▁works	-5079
▁drinks	-5080
▁stitch	-5081
ored	-5082
▁Rocky	-5083
va	-5084
▁spit	-5085
▁melting	-5086
▁received	-5087
ther	-5088
ission	-5089
Goodbye	-5090
▁flat	-5091
▁headed	-5092
▁victory	-5093
▁perfectly	-5094
▁pearl	-5095
▁Che	-5096
▁mouths	-5097
▁pupil	-5098
cus	-5099
▁contest	-5100
▁ordered	-5101
umes	-5102
▁setting	-5103
▁sneak	-5104
▁printed	-5105
▁Gr	-5106
▁lands	-5107
▁permission	-5108
▁Chicky	-5109
▁wiggle	-5110
▁whistling	-5111
▁shock	-5112
▁Din	-5113
walk	-5114
▁ago	-5115
▁mixing	-5116
▁ripped	-5117
▁fishing	-5118
▁pra	-5119
▁cartoons	-5120
▁remained	-5121
▁breeze	-5122
▁officer	-5123
▁supposed	-5124
▁tongue	-5125
▁shadows	-5126
irring	-5127
▁instr	-5128
▁emergen	-5129
▁highest	-5130
▁laid	-5131
▁kneeled	-5132
oved	-5133
▁hen	-5134
▁known	-5135
▁twink	-5136
▁mister	-5137
▁sorted	-5138
▁costumes	-5139
▁succeeded	-5140
▁six	-5141
▁lily	-5142
▁stealing	-5143
▁Follow	-5144
▁tucked	-5145
▁Katie	-5146
▁resting	-5147
▁sidewalk	-5148
utter	-5149
▁lips	-5150
abies	-5151
▁appreciate	-5152
Ha	-5153
▁moments	-5154
Mr	-5155
▁roots	-5156
vest	-5157
▁brid	-5158
please	-5159
▁relaxed	-5160
▁ringing	-5161
▁achie	-5162
",	-5163
izing	-5164
▁rested	-5165
▁colours	-5166
▁settled	-5167
▁Boo	-5168
▁strang	-5169
avid	-5170
▁fed	-5171
!",	-5172
▁Lizzy	-5173
▁cones	-5174
▁babies	-5175
ety	-5176
▁alright	-5177
!'	-5178
ship	-5179
▁rul	-5180
▁crunch	-5181
▁burning	-5182
allen	-5183
▁lick	-5184
▁Frank	-5185
▁fields	-5186
▁threat	-5187
▁girls	-5188
▁However	-5189
▁tonight	-5190
▁turning	-5191
▁Am	-5192
▁challen	-5193
▁Mo	-5194
▁David	-5195
▁bridges	-5196
▁playtime	-5197
▁stirring	-5198
Really	-5199
bug	-5200
Would	-5201
mbling	-5202
▁theirs	-5203
▁sore	-5204
▁Slowly	-5205
▁trembling	-5206
boo	-5207
▁nails	-5208
▁strangers	-5209
▁importance	-5210
ishes	-5211
▁bravely	-5212
▁escaped	-5213
▁sisters	-5214
▁Dino	-5215
▁emergency	-5216
▁Someone	-5217
▁scratched	-5218
ids	-5219
achel	-5220
▁crawling	-5221
igail	-5222
▁inch	-5223
▁item	-5224
sing	-5225
▁Happy	-5226
▁stamps	-5227
▁silence	-5228
▁glowed	-5229
▁screams	-5230
▁Unfortunately	-5231
▁pupp	-5232
▁slapped	-5233
▁revealed	-5234
▁El	-5235
osity	-5236
▁broom	-5237
▁touching	-5238
▁beamed	-5239
▁served	-5240
▁Bug	-5241
▁waits	-5242
▁matched	-5243
▁admir	-5244
▁Abigail	-5245
▁keys	-5246
▁Rachel	-5247
▁safety	-5248
▁Hope	-5249
▁answers	-5250
▁chewing	-5251
▁Steve	-5252
ha	-5253
▁dads	-5254
▁recorded	-5255
Little	-5256
isten	-5257
▁soared	-5258
▁tickets	-5259
▁piles	-5260
▁invest	-5261
▁tickle	-5262
▁Not	-5263
▁stro	-5264
▁twigs	-5265
▁investig	-5266
▁vet	-5267
▁Frog	-5268
▁ladybug	-5269
▁amazement	-5270
▁dire	-5271
▁Hop	-5272
▁Beep	-5273
▁keeps	-5274
▁flav	-5275
▁writ	-5276
▁hated	-5277
▁trips	-5278
▁wooden	-5279
▁wiz	-5280
▁hesit	-5281
fied	-5282
▁Aunt	-5283
▁beat	-5284
▁eats	-5285
▁weighed	-5286
▁families	-5287
▁downstairs	-5288
▁wink	-5289
▁monsters	-5290
▁soaked	-5291
▁sparkle	-5292
▁foods	-5293
▁sings	-5294
▁includ	-5295
▁shopping	-5296
▁studying	-5297
▁collecting	-5298
ides	-5299
▁opinion	-5300
▁twin	-5301
▁brushes	-5302
▁Joy	-5303
▁pause	-5304
▁investigate	-5305
anna	-5306
▁Ray	-5307
▁Rabbit	-5308
▁apologized	-5309
▁si	-5310
▁marks	-5311
▁siren	-5312
▁sprinkles	-5313
zing	-5314
▁ruler	-5315
▁peel	-5316
▁tastes	-5317
▁firemen	-5318
▁muffins	-5319
▁grey	-5320
▁napping	-5321
▁approached	-5322
▁eff	-5323
antly	-5324
▁curled	-5325
▁wizard	-5326
Boo	-5327
▁Zoe	-5328
▁fut	-5329
▁future	-5330
▁secrets	-5331
ped	-5332
▁naps	-5333
▁quack	-5334
▁cuddled	-5335
▁praised	-5336
Kitty	-5337
hello	-5338
'.	-5339
▁Birdie	-5340
▁gained	-5341
bey	-5342
▁recognized	-5343
▁Ho	-5344
▁guy	-5345
▁happiest	-5346
ales	-5347
▁anytime	-5348
▁hi	-5349
▁bringing	-5350
ays	-5351
▁Jan	-5352
▁Jess	-5353
▁Pippa	-5354
▁motion	-5355
aved	-5356
ding	-5357
▁Did	-5358
cious	-5359
▁chef	-5360
▁crashed	-5361
int	-5362
▁remem	-5363
▁poking	-5364
▁thrill	-5365
▁noon	-5366
▁pride	-5367
▁hissed	-5368
▁mittens	-5369
▁measuring	-5370
▁Mat	-5371
▁Friend	-5372
▁remembers	-5373
She	-5374
ues	-5375
iggy	-5376
▁leader	-5377
▁bloomed	-5378
▁crunchy	-5379
.'	-5380
▁possible	-5381
▁dot	-5382
▁obey	-5383
▁area	-5384
▁shooting	-5385
Or	-5386
▁Chr	-5387
▁Always	-5388
▁nicer	-5389
▁Bouncy	-5390
rs	-5391
Have	-5392
▁gran	-5393
▁rides	-5394
▁Je	-5395
▁Beh	-5396
▁zooming	-5397
▁sweeties	-5398
▁dinosaurs	-5399
▁snowballs	-5400
▁seesaw	-5401
▁ourselves	-5402
act	-5403
▁effort	-5404
▁sneaky	-5405
▁decides	-5406
▁grinned	-5407
▁respons	-5408
▁scaring	-5409
▁wanting	-5410
▁disturbed	-5411
allow	-5412
▁Julie	-5413
▁Robby	-5414
▁struck	-5415
Happy	-5416
▁poems	-5417
▁tricked	-5418
▁prepared	-5419
ities	-5420
▁doggy	-5421
▁loose	-5422
▁wonders	-5423
▁Ad	-5424
▁horns	-5425
▁Behind	-5426
Jo	-5427
▁gust	-5428
unnies	-5429
▁pedals	-5430
▁By	-5431
omas	-5432
▁Car	-5433
▁strings	-5434
indy	-5435
▁sneaked	-5436
▁yelling	-5437
▁awe	-5438
▁parties	-5439
▁Sad	-5440
oming	-5441
▁Star	-5442
Remember	-5443
▁chirped	-5444
▁Bree	-5445
▁owned	-5446
▁frost	-5447
ided	-5448
▁draws	-5449
▁knelt	-5450
When	-5451
▁tallest	-5452
▁bleeding	-5453
▁Thomas	-5454
▁behaved	-5455
▁buzzing	-5456
▁spaceship	-5457
▁bunnies	-5458
▁precious	-5459
▁Nan	-5460
▁balancing	-5461
Mmm	-5462
▁repeated	-5463
▁Stop	-5464
▁woof	-5465
▁rocking	-5466
▁machines	-5467
▁spraying	-5468
▁scrub	-5469
▁seems	-5470
▁polished	-5471
▁Jam	-5472
elvet	-5473
▁pockets	-5474
▁Something	-5475
▁neighborhood	-5476
▁youth	-5477
▁roads	-5478
▁decorated	-5479
ena	-5480
▁tugged	-5481
▁scooped	-5482
▁claps	-5483
▁Velvet	-5484
▁acting	-5485
▁kindly	-5486
mother	-5487
▁swims	-5488
▁writes	-5489
▁cracked	-5490
▁stripes	-5491
▁spending	-5492
urry	-5493
▁During	-5494
▁agreement	-5495
Ah	-5496
▁Squ	-5497
▁granted	-5498
▁Olly	-5499
▁frosting	-5500
▁struggled	-5501
▁zookeeper	-5502
▁worker	-5503
▁prop	-5504
▁contain	-5505
oys	-5506
▁rele	-5507
zen	-5508
ppers	-5509
▁lied	-5510
▁slim	-5511
▁deser	-5512
▁planets	-5513
▁rubbing	-5514
▁staying	-5515
▁admiring	-5516
Somet	-5517
▁keeper	-5518
▁folding	-5519
▁decision	-5520
▁Keep	-5521
▁Dare	-5522
Ch	-5523
isdom	-5524
▁beside	-5525
▁expected	-5526
▁Beth	-5527
▁demanded	-5528
ogo	-5529
▁Everyday	-5530
▁Green	-5531
▁sides	-5532
▁bottles	-5533
▁removed	-5534
▁teaches	-5535
▁organizing	-5536
▁frozen	-5537
▁peered	-5538
▁polishing	-5539
▁stare	-5540
▁Stitch	-5541
▁pots	-5542
edding	-5543
▁heroes	-5544
▁purred	-5545
Al	-5546
▁buildings	-5547
▁comforted	-5548
▁yesterday	-5549
▁struggling	-5550
ien	-5551
uke	-5552
▁catches	-5553
▁curiosity	-5554
▁boo	-5555
affes	-5556
▁Like	-5557
▁argu	-5558
▁steep	-5559
▁hardly	-5560
bie	-5561
▁Moo	-5562
▁loaded	-5563
▁giraffes	-5564
▁matching	-5565
▁radishes	-5566
use	-5567
▁arguing	-5568
▁thrilled	-5569
▁goodnight	-5570
▁Nina	-5571
▁brushed	-5572
▁petted	-5573
▁pastels	-5574
▁airpl	-5575
▁slimy	-5576
▁padd	-5577
▁goals	-5578
▁mane	-5579
▁Water	-5580
▁chases	-5581
▁diving	-5582
▁loving	-5583
▁ribbons	-5584
▁toss	-5585
▁Hippy	-5586
▁comfy	-5587
▁sting	-5588
Yummy	-5589
▁wondering	-5590
▁Gogo	-5591
▁neighbors	-5592
▁sparkling	-5593
▁crumb	-5594
▁teased	-5595
▁hugging	-5596
▁roaring	-5597
▁actually	-5598
▁whatever	-5599
oh	-5600
▁opening	-5601
▁gaze	-5602
▁cubes	-5603
▁company	-5604
▁onwards	-5605
▁continue	-5606
joyed	-5607
▁Ol	-5608
▁rip	-5609
▁rust	-5610
▁circus	-5611
▁drives	-5612
▁Because	-5613
▁released	-5614
▁surrounded	-5615
▁fasc	-5616
▁pebbles	-5617
▁wedding	-5618
▁fault	-5619
▁overjoyed	-5620
Achoo	-5621
▁Josh	-5622
▁movies	-5623
▁pretends	-5624
▁challenge	-5625
Daddy	-5626
▁Being	-5627
ern	-5628
Sally	-5629
▁Abby	-5630
▁boom	-5631
▁belly	-5632
▁Wisdom	-5633
▁clearing	-5634
▁discovery	-5635
▁X	-5636
Gra	-5637
umble	-5638
▁eight	-5639
▁Remember	-5640
▁Ava	-5641
▁refres	-5642
▁smiley	-5643
▁argued	-5644
loe	-5645
▁earl	-5646
▁safer	-5647
▁villag	-5648
▁earlier	-5649
▁protected	-5650
▁ann	-5651
▁united	-5652
▁smallest	-5653
▁traveled	-5654
”.	-5655
▁Watch	-5656
▁Spring	-5657
▁apologize	-5658
▁stretching	-5659
▁Two	-5660
ira	-5661
▁tim	-5662
▁limes	-5663
▁comple	-5664
▁powers	-5665
▁talent	-5666
▁dipped	-5667
▁sadness	-5668
▁splashes	-5669
jam	-5670
njoy	-5671
Thanks	-5672
▁soaring	-5673
▁shivered	-5674
▁3-	-5675
▁For	-5676
▁Jamie	-5677
▁Chloe	-5678
▁Leave	-5679
▁fascin	-5680
▁dragons	-5681
▁paintings	-5682
▁beard	-5683
Sometimes	-5684
▁sparkles	-5685
ten	-5686
iders	-5687
▁crabs	-5688
▁satis	-5689
▁Put	-5690
▁quarreling	-5691
▁shrug	-5692
▁healed	-5693
▁realize	-5694
▁peas	-5695
▁rings	-5696
▁wrist	-5697
▁rocked	-5698
▁bedtime	-5699
▁peppers	-5700
▁creation	-5701
lowers	-5702
▁activ	-5703
▁sighs	-5704
▁packing	-5705
▁begin	-5706
▁fears	-5707
▁sausages	-5708
▁sunlight	-5709
Fl	-5710
▁flags	-5711
▁reply	-5712
▁reminder	-5713
▁sticking	-5714
▁Spl	-5715
▁Zero	-5716
▁flutter	-5717
▁prettiest	-5718
▁caut	-5719
▁situ	-5720
▁shirts	-5721
▁wires	-5722
▁tails	-5723
▁weeks	-5724
▁batteries	-5725
▁firefight	-5726
▁gathering	-5727
▁villagers	-5728
▁contro	-5729
▁dragged	-5730
▁instruct	-5731
annah	-5732
▁guns	-5733
▁Earth	-5734
▁eagle	-5735
▁wiggled	-5736
▁destination	-5737
▁responsible	-5738
inda	-5739
Mama	-5740
Silly	-5741
▁grandmother	-5742
Mum	-5743
▁Fish	-5744
▁cuts	-5745
▁phot	-5746
▁gotten	-5747
▁pouring	-5748
▁airplane	-5749
uddles	-5750
anny	-5751
seek	-5752
▁wins	-5753
▁Susan	-5754
▁chips	-5755
▁crept	-5756
▁darker	-5757
▁practicing	-5758
Bird	-5759
▁Lou	-5760
▁roses	-5761
▁cuddle	-5762
▁actions	-5763
▁Bop	-5764
▁Kay	-5765
icorn	-5766
▁heav	-5767
▁kites	-5768
▁Friends	-5769
▁penguins	-5770
▁playroom	-5771
▁bead	-5772
▁died	-5773
▁dusty	-5774
▁learns	-5775
enty	-5776
▁Mad	-5777
▁sled	-5778
▁Dizzy	-5779
▁arrive	-5780
▁spiders	-5781
umm	-5782
John	-5783
▁unicorn	-5784
▁chirping	-5785
▁visiting	-5786
aws	-5787
Watch	-5788
▁hitting	-5789
Ex	-5790
▁dam	-5791
ining	-5792
▁patience	-5793
▁instructions	-5794
▁Adam	-5795
▁bank	-5796
▁honk	-5797
▁items	-5798
▁masks	-5799
▁protecting	-5800
▁Lena	-5801
uest	-5802
▁Cla	-5803
▁complaining	-5804
Uh	-5805
go	-5806
ica	-5807
▁Henny	-5808
▁baker	-5809
▁agrees	-5810
▁buckets	-5811
▁knights	-5812
▁crowd	-5813
▁snakes	-5814
▁wherever	-5815
jamas	-5816
▁logs	-5817
▁Brownie	-5818
▁dolphins	-5819
ley	-5820
▁Catty	-5821
▁Splash	-5822
▁wasted	-5823
▁Cuddles	-5824
Cat	-5825
▁forgi	-5826
ners	-5827
▁adult	-5828
▁control	-5829
▁applauded	-5830
▁ma	-5831
Fluffy	-5832
▁whose	-5833
Just	-5834
▁Prin	-5835
▁third	-5836
▁observed	-5837
▁Quick	-5838
▁awake	-5839
▁guest	-5840
▁outdo	-5841
▁achieve	-5842
▁lollipops	-5843
ler	-5844
Stay	-5845
▁Cra	-5846
cakes	-5847
▁Love	-5848
▁blows	-5849
▁pencils	-5850
▁project	-5851
▁cheering	-5852
aster	-5853
▁Anne	-5854
▁Luck	-5855
▁bare	-5856
▁stole	-5857
▁wound	-5858
▁parked	-5859
▁stumble	-5860
Bad	-5861
▁Dot	-5862
▁Days	-5863
▁Hoot	-5864
▁uses	-5865
▁Hannah	-5866
▁glitter	-5867
▁perched	-5868
▁scrubbed	-5869
Oops	-5870
sses	-5871
▁completed	-5872
▁mountains	-5873
dies	-5874
▁pumpkins	-5875
▁Sure	-5876
▁Luckily	-5877
▁helmets	-5878
▁remote	-5879
▁passing	-5880
▁staring	-5881
▁shoulders	-5882
▁tang	-5883
▁bowls	-5884
▁candies	-5885
▁quacked	-5886
die	-5887
▁Foxy	-5888
▁Mira	-5889
▁copy	-5890
▁pajamas	-5891
▁screaming	-5892
▁Jeff	-5893
▁Blink	-5894
▁Jessie	-5895
▁Chew	-5896
▁Luke	-5897
▁dent	-5898
▁beads	-5899
nie	-5900
▁joking	-5901
▁Ant	-5902
▁Bye	-5903
▁Dee	-5904
▁seas	-5905
▁brand	-5906
▁patted	-5907
▁towels	-5908
▁snowmen	-5909
▁examined	-5910
▁promises	-5911
▁cough	-5912
▁stays	-5913
▁refuse	-5914
lict	-5915
ashed	-5916
▁accom	-5917
▁neither	-5918
▁bene	-5919
▁tune	-5920
▁listens	-5921
▁conflict	-5922
▁cans	-5923
▁puppet	-5924
▁usually	-5925
uly	-5926
▁Sun	-5927
▁Princess	-5928
▁wobbled	-5929
▁Our	-5930
▁rule	-5931
▁slam	-5932
▁Jenna	-5933
▁Whist	-5934
▁swoop	-5935
▁crumbs	-5936
▁photos	-5937
▁workers	-5938
▁exact	-5939
▁tasks	-5940
▁beneath	-5941
Run	-5942
zes	-5943
Today	-5944
kelly	-5945
▁Gina	-5946
▁fara	-5947
▁Enjoy	-5948
▁accompl	-5949
▁faraway	-5950
▁improved	-5951
▁requested	-5952
▁faced	-5953
▁shelves	-5954
esome	-5955
▁Mouse	-5956
▁rescued	-5957
▁neighbourhood	-5958
ssss	-5959
▁scales	-5960
Ro	-5961
▁drums	-5962
▁twirl	-5963
▁adding	-5964
▁insist	-5965
▁replaced	-5966
▁starfish	-5967
irm	-5968
▁Matt	-5969
▁rubs	-5970
▁Jon	-5971
▁Mon	-5972
▁timer	-5973
▁blooming	-5974
hee	-5975
▁ast	-5976
▁Skelly	-5977
▁helpers	-5978
▁jackets	-5979
▁Ziggy	-5980
▁curly	-5981
▁awesome	-5982
▁filling	-5983
▁curtains	-5984
▁prettier	-5985
▁teamwork	-5986
▁librarian	-5987
▁Skip	-5988
▁pans	-5989
▁misses	-5990
▁fairies	-5991
▁patiently	-5992
...	-5993
▁mes	-5994
▁Ally	-5995
▁farther	-5996
lay	-5997
▁weren	-5998
▁outdoors	-5999
▁Jac	-6000
▁cautious	-6001
▁reaching	-6002
▁sob	-6003
Tommy	-6004
▁spong	-6005
▁thorn	-6006
▁policeman	-6007
ilo	-6008
▁inviting	-6009
Mummy	-6010
▁seven	-6011
▁stern	-6012
▁sweat	-6013
▁Claire	-6014
▁traded	-6015
▁Welcome	-6016
▁Squirrel	-6017
▁warnings	-6018
▁remembering	-6019
avi	-6020
Hold	-6021
▁usual	-6022
▁knocks	-6023
▁1	-6024
▁solut	-6025
▁caused	-6026
▁introduc	-6027
▁fascinated	-6028
ledge	-6029
neath	-6030
▁guys	-6031
▁kicks	-6032
▁knowledge	-6033
abel	-6034
gers	-6035
▁Get	-6036
▁lap	-6037
▁rockets	-6038
cuse	-6039
▁dar	-6040
▁truly	-6041
▁rainbows	-6042
▁Want	-6043
▁dots	-6044
▁paddle	-6045
▁supplies	-6046
you	-6047
zie	-6048
anta	-6049
▁Cindy	-6050
▁itchy	-6051
▁closes	-6052
▁desert	-6053
▁glasses	-6054
▁tractor	-6055
▁Jacob	-6056
▁alien	-6057
▁bunch	-6058
▁firm	-6059
▁vent	-6060
▁barely	-6061
▁steady	-6062
▁giggling	-6063
▁Mix	-6064
▁Dara	-6065
▁wears	-6066
▁Whistle	-6067
▁napkins	-6068
▁pastries	-6069
▁prayer	-6070
uctantly	-6071
▁scarves	-6072
▁everyday	-6073
▁included	-6074
▁delivered	-6075
ais	-6076
▁Yes	-6077
▁dances	-6078
▁pointy	-6079
▁loading	-6080
▁praying	-6081
▁tangled	-6082
▁comm	-6083
Excuse	-6084
▁Quack	-6085
▁Santa	-6086
▁windy	-6087
▁sponge	-6088
▁paddled	-6089
▁yourselves	-6090
▁unp	-6091
▁marked	-6092
▁videos	-6093
▁exactly	-6094
▁becoming	-6095
▁recording	-6096
Jack	-6097
arter	-6098
▁Jilly	-6099
▁Linda	-6100
▁untie	-6101
▁sneezing	-6102
eah	-6103
▁magnets	-6104
▁surface	-6105
▁situation	-6106
▁Fu	-6107
▁smarter	-6108
▁balanced	-6109
▁vowed	-6110
▁mission	-6111
▁sights	-6112
▁satisfied	-6113
▁Kids	-6114
▁deal	-6115
▁rolls	-6116
▁Jessica	-6117
▁confident	-6118
▁Po	-6119
▁desp	-6120
▁squares	-6121
Fine	-6122
anes	-6123
roat	-6124
▁reads	-6125
▁throat	-6126
▁yells	-6127
Then	-6128
agull	-6129
▁Suzie	-6130
▁Sc	-6131
Roar	-6132
inkle	-6133
▁Milo	-6134
▁forks	-6135
▁valued	-6136
▁homework	-6137
▁discovering	-6138
rrr	-6139
▁pout	-6140
▁covers	-6141
▁needles	-6142
▁Nana	-6143
▁images	-6144
▁paying	-6145
Shh	-6146
ido	-6147
len	-6148
▁cent	-6149
▁direction	-6150
▁risk	-6151
Timmy	-6152
▁Near	-6153
▁bumpy	-6154
▁knees	-6155
▁clowns	-6156
▁younger	-6157
▁superheroes	-6158
coon	-6159
Great	-6160
▁Duck	-6161
▁cause	-6162
▁winked	-6163
▁doctors	-6164
▁creating	-6165
irl	-6166
▁tipto	-6167
▁signed	-6168
▁minerals	-6169
Yeah	-6170
▁Abb	-6171
▁unf	-6172
▁Fido	-6173
▁Jones	-6174
▁Sorry	-6175
▁squeal	-6176
▁deserve	-6177
▁leaning	-6178
▁twirling	-6179
▁explorers	-6180
▁underneath	-6181
ody	-6182
▁bak	-6183
▁choo	-6184
▁singer	-6185
▁slower	-6186
▁sobbed	-6187
Fo	-6188
▁Paws	-6189
▁vines	-6190
▁arrows	-6191
▁reluctantly	-6192
iar	-6193
vin	-6194
▁Sadly	-6195
▁ropes	-6196
▁buzzed	-6197
▁startled	-6198
tle	-6199
▁stem	-6200
though	-6201
▁Buggy	-6202
▁swooped	-6203
▁growling	-6204
▁wandering	-6205
ora	-6206
..."	-6207
▁Oliver	-6208
▁ruining	-6209
▁restored	-6210
Ew	-6211
Le	-6212
haust	-6213
▁however	-6214
▁refreshed	-6215
▁scratches	-6216
Our	-6217
son	-6218
▁chuck	-6219
▁biting	-6220
▁insects	-6221
▁seagull	-6222
▁slammed	-6223
▁Yesterday	-6224
▁ornaments	-6225
Those	-6226
▁chat	-6227
▁basement	-6228
lled	-6229
▁Betsy	-6230
▁badge	-6231
▁Copper	-6232
▁choices	-6233
▁activities	-6234
▁pens	-6235
▁dived	-6236
▁onions	-6237
eed	-6238
▁Rover	-6239
▁burst	-6240
▁exhaust	-6241
oline	-6242
▁Ball	-6243
▁joked	-6244
▁noses	-6245
▁sewed	-6246
▁entire	-6247
▁leading	-6248
▁properly	-6249
▁provided	-6250
▁unpacked	-6251
Dog	-6252
▁hides	-6253
▁introduced	-6254
▁opp	-6255
▁Lion	-6256
▁refle	-6257
▁handful	-6258
▁heavier	-6259
▁solution	-6260
Cl	-6261
▁pins	-6262
▁snat	-6263
▁films	-6264
▁wipes	-6265
▁complained	-6266
▁sunflowers	-6267
pr	-6268
ados	-6269
tuce	-6270
▁Mel	-6271
▁Try	-6272
▁lifting	-6273
▁princesses	-6274
?",	-6275
▁Dodo	-6276
▁muscle	-6277
▁Nothing	-6278
▁toaster	-6279
▁guessing	-6280
▁performed	-6281
cl	-6282
▁wow	-6283
▁Bark	-6284
▁gems	-6285
▁lettuce	-6286
▁speaking	-6287
sm	-6288
▁Julia	-6289
ouch	-6290
brush	-6291
▁cous	-6292
▁salty	-6293
▁bakery	-6294
▁growls	-6295
▁avo	-6296
▁feast	-6297
▁ranger	-6298
▁stolen	-6299
▁blocking	-6300
▁ripe	-6301
▁greet	-6302
▁grows	-6303
▁swans	-6304
▁tables	-6305
aa	-6306
fit	-6307
Time	-6308
▁Stay	-6309
▁froze	-6310
▁Sophia	-6311
▁silent	-6312
▁written	-6313
coat	-6314
▁wid	-6315
▁Cara	-6316
▁Crab	-6317
▁Snap	-6318
▁bodies	-6319
▁darling	-6320
▁tickled	-6321
▁avocados	-6322
▁behaving	-6323
▁darkness	-6324
▁necklaces	-6325
itches	-6326
▁bumps	-6327
▁backed	-6328
▁relief	-6329
▁Tree	-6330
▁repa	-6331
aisies	-6332
▁mater	-6333
▁material	-6334
▁exhausted	-6335
▁separated	-6336
▁pec	-6337
▁Izzy	-6338
▁steer	-6339
▁stung	-6340
▁outfit	-6341
▁plenty	-6342
▁Without	-6343
▁daisies	-6344
▁wishing	-6345
ences	-6346
▁annoy	-6347
▁races	-6348
▁Grumpy	-6349
▁uns	-6350
itely	-6351
lings	-6352
▁Laser	-6353
▁Robert	-6354
▁raincoat	-6355
ctar	-6356
▁sib	-6357
▁nine	-6358
▁scra	-6359
Follow	-6360
▁least	-6361
▁cheeks	-6362
▁nectar	-6363
▁tapped	-6364
▁lighter	-6365
▁chuckled	-6366
▁Jay	-6367
umbled	-6368
▁Cathy	-6369
▁Rolly	-6370
▁gears	-6371
▁hider	-6372
▁Goodbye	-6373
▁stomped	-6374
▁repaired	-6375
▁interested	-6376
▁Wink	-6377
▁scur	-6378
Grandma	-6379
od	-6380
▁mer	-6381
▁cash	-6382
uggles	-6383
▁Larry	-6384
▁rotting	-6385
hile	-6386
izzie	-6387
Listen	-6388
▁chefs	-6389
▁tires	-6390
▁Peanut	-6391
▁flames	-6392
▁partic	-6393
▁tunnels	-6394
▁crackers	-6395
▁suffering	-6396
▁accomplish	-6397
▁Fuzzy	-6398
▁Mikey	-6399
▁buying	-6400
▁dentist	-6401
▁hesitated	-6402
sequ	-6403
anging	-6404
▁Chris	-6405
▁meals	-6406
▁consequ	-6407
▁grabbing	-6408
amb	-6409
vers	-6410
▁Those	-6411
▁Trust	-6412
▁reason	-6413
▁competition	-6414
▁click	-6415
▁fuzzy	-6416
▁rainy	-6417
▁Robbie	-6418
▁cuddly	-6419
▁marker	-6420
▁peeking	-6421
▁scurried	-6422
▁‘	-6423
▁Els	-6424
retch	-6425
▁flavor	-6426
▁seeker	-6427
▁colored	-6428
▁dancers	-6429
▁Snuggles	-6430
▁snatched	-6431
▁triangles	-6432
▁Ex	-6433
aren	-6434
▁Tara	-6435
▁jobs	-6436
▁lifts	-6437
▁month	-6438
▁swords	-6439
▁forgets	-6440
▁ventured	-6441
▁cautiously	-6442
▁consequences	-6443
ept	-6444
cher	-6445
▁impo	-6446
▁leap	-6447
▁Kayla	-6448
▁mints	-6449
▁stool	-6450
▁Lizzie	-6451
▁Stella	-6452
▁losing	-6453
▁feeding	-6454
▁decorating	-6455
▁impossible	-6456
boat	-6457
iles	-6458
rink	-6459
▁Abbie	-6460
▁fever	-6461
▁sweets	-6462
▁waiter	-6463
▁playhouse	-6464
▁Ele	-6465
▁Lau	-6466
artha	-6467
▁bows	-6468
ronaut	-6469
▁genie	-6470
▁wraps	-6471
▁Ash	-6472
ctions	-6473
▁Mabel	-6474
▁paths	-6475
▁sewing	-6476
▁designed	-6477
▁astronaut	-6478
uzz	-6479
ivery	-6480
▁untied	-6481
▁cobwebs	-6482
▁printing	-6483
fl	-6484
yond	-6485
▁Rain	-6486
▁Other	-6487
▁Christ	-6488
▁beyond	-6489
▁matters	-6490
▁forehead	-6491
▁squealed	-6492
▁Lia	-6493
▁thud	-6494
▁piggy	-6495
▁plain	-6496
▁twice	-6497
▁behavi	-6498
▁dollhouse	-6499
rance	-6500
▁liqu	-6501
▁ties	-6502
▁Martha	-6503
?'	-6504
▁Woo	-6505
▁hops	-6506
▁Karen	-6507
▁swept	-6508
▁tricky	-6509
▁touches	-6510
▁backward	-6511
▁borrowed	-6512
oke	-6513
▁ty	-6514
airy	-6515
iggie	-6516
▁Nick	-6517
▁sense	-6518
▁stain	-6519
▁particular	-6520
ho	-6521
nies	-6522
▁Pup	-6523
▁Missy	-6524
▁freed	-6525
▁shops	-6526
▁bravery	-6527
▁Laura	-6528
▁determination	-6529
vroom	-6530
▁ache	-6531
▁budge	-6532
▁talks	-6533
▁Listen	-6534
▁calmed	-6535
▁Twinkle	-6536
▁pancakes	-6537
▁wrapping	-6538
but	-6539
▁den	-6540
▁buses	-6541
▁delivery	-6542
▁passports	-6543
oll	-6544
yes	-6545
indr	-6546
▁chop	-6547
▁cott	-6548
▁Lenny	-6549
▁lungs	-6550
▁rising	-6551
▁dropping	-6552
▁rewarded	-6553
ammy	-6554
uing	-6555
▁aimed	-6556
▁raindr	-6557
▁Ron	-6558
▁shoo	-6559
▁Frost	-6560
▁mailed	-6561
▁siblings	-6562
▁Woof	-6563
▁conn	-6564
▁cowb	-6565
igning	-6566
▁cashier	-6567
▁figured	-6568
▁increased	-6569
no	-6570
bric	-6571
▁nests	-6572
▁fabric	-6573
▁liquid	-6574
▁age	-6575
rious	-6576
▁June	-6577
▁fact	-6578
▁spat	-6579
▁baths	-6580
▁leads	-6581
▁Frosty	-6582
▁blocked	-6583
▁players	-6584
▁students	-6585
▁mushrooms	-6586
elle	-6587
▁purr	-6588
itched	-6589
▁plans	-6590
▁spikes	-6591
▁tiptoed	-6592
Rex	-6593
Bobo	-6594
▁gross	-6595
▁Biggie	-6596
▁twinkle	-6597
▁worries	-6598
▁Birthday	-6599
▁Elephant	-6600
▁suitcase	-6601
iam	-6602
lee	-6603
Lila	-6604
▁fins	-6605
▁skunk	-6606
▁pecked	-6607
▁pennies	-6608
▁somebody	-6609
▁regretted	-6610
▁twinkling	-6611
mas	-6612
▁Jump	-6613
▁clues	-6614
▁counts	-6615
▁rotten	-6616
▁entrance	-6617
cky	-6618
hog	-6619
▁Ry	-6620
ives	-6621
▁Hold	-6622
▁thrown	-6623
▁Stretch	-6624
▁kittens	-6625
▁celebration	-6626
uess	-6627
▁Fire	-6628
▁yelp	-6629
▁bells	-6630
▁loops	-6631
▁completely	-6632
▁surprising	-6633
▁Sl	-6634
Beep	-6635
▁Bones	-6636
▁rains	-6637
▁wiping	-6638
▁directions	-6639
▁Up	-6640
step	-6641
▁Robo	-6642
▁sway	-6643
▁laying	-6644
▁frowning	-6645
▁countryside	-6646
Buddy	-6647
ility	-6648
▁puppies	-6649
▁Q	-6650
bly	-6651
ades	-6652
bird	-6653
eese	-6654
▁softer	-6655
▁figures	-6656
Mine	-6657
weed	-6658
▁colder	-6659
▁sparks	-6660
▁camping	-6661
▁spreading	-6662
Whee	-6663
▁Only	-6664
▁mate	-6665
▁kings	-6666
▁tramp	-6667
Take	-6668
stick	-6669
using	-6670
ustom	-6671
▁damage	-6672
▁Snowman	-6673
▁seaweed	-6674
▁hedgehog	-6675
▁performance	-6676
▁Emmy	-6677
▁Ryan	-6678
Always	-6679
▁Patch	-6680
▁custom	-6681
▁reflection	-6682
▁Ma	-6683
▁Ell	-6684
▁Pam	-6685
angle	-6686
▁Toot	-6687
▁Along	-6688
▁Bloom	-6689
▁avoid	-6690
▁fires	-6691
▁spells	-6692
▁instrum	-6693
▁encourag	-6694
ans	-6695
band	-6696
cope	-6697
▁Rudy	-6698
▁earn	-6699
▁squish	-6700
▁stands	-6701
▁zebras	-6702
▁drivers	-6703
▁firefly	-6704
▁lending	-6705
▁beginning	-6706
▁Sw	-6707
▁Rich	-6708
▁sale	-6709
▁among	-6710
▁slips	-6711
▁Doctor	-6712
▁tipped	-6713
▁dollars	-6714
▁changing	-6715
ueen	-6716
▁storekeeper	-6717
Some	-6718
▁Barky	-6719
▁pours	-6720
▁Sparky	-6721
▁groups	-6722
▁mesmer	-6723
▁achieved	-6724
▁sailboat	-6725
▁trampoline	-6726
▁firefighters	-6727
eet	-6728
pen	-6729
▁aff	-6730
▁unsure	-6731
▁warmer	-6732
iversity	-6733
▁Christmas	-6734
▁forgetting	-6735
endy	-6736
▁fits	-6737
▁owners	-6738
▁hearing	-6739
▁everybody	-6740
iece	-6741
▁Mic	-6742
▁Tia	-6743
itted	-6744
▁Moon	-6745
▁bars	-6746
▁lamb	-6747
▁geese	-6748
▁poster	-6749
▁squeak	-6750
▁markers	-6751
▁twisting	-6752
▁celebrating	-6753
▁accomplishment	-6754
hi	-6755
rig	-6756
uppy	-6757
▁die	-6758
▁gri	-6759
itude	-6760
▁Maya	-6761
▁Jackie	-6762
▁cushions	-6763
▁whispers	-6764
▁Roo	-6765
▁hus	-6766
▁rusty	-6767
▁cousin	-6768
▁honked	-6769
▁indeed	-6770
▁scored	-6771
▁hopeful	-6772
▁Afterwards	-6773
nk	-6774
eal	-6775
ters	-6776
▁fart	-6777
▁knots	-6778
▁surfing	-6779
▁flapping	-6780
▁hour	-6781
▁shrinking	-6782
rust	-6783
▁dod	-6784
illed	-6785
river	-6786
▁Thanks	-6787
▁hallway	-6788
▁backwards	-6789
▁bracelets	-6790
ky	-6791
immer	-6792
▁Janie	-6793
▁planning	-6794
▁slipping	-6795
▁Abi	-6796
▁sank	-6797
▁hoops	-6798
▁sending	-6799
▁farthest	-6800
eds	-6801
ingo	-6802
▁tweet	-6803
▁guests	-6804
▁single	-6805
▁sniffs	-6806
▁source	-6807
▁supported	-6808
▁Farm	-6809
▁rather	-6810
▁express	-6811
▁reversed	-6812
▁forgiving	-6813
elia	-6814
▁horiz	-6815
▁shaped	-6816
▁husband	-6817
▁swimsuit	-6818
▁recommended	-6819
ibbit	-6820
rigued	-6821
▁drawn	-6822
▁merry	-6823
▁grocer	-6824
▁robber	-6825
▁horizon	-6826
▁preparing	-6827
igers	-6828
ivity	-6829
▁Take	-6830
▁Beaky	-6831
▁blown	-6832
▁lower	-6833
▁swall	-6834
▁wakes	-6835
▁passen	-6836
▁rivers	-6837
▁tossed	-6838
▁wobble	-6839
▁corners	-6840
▁flavors	-6841
▁imagining	-6842
▁swallowed	-6843
▁Ang	-6844
▁Zee	-6845
▁aside	-6846
▁ignoring	-6847
▁treehouse	-6848
▁Zo	-6849
iding	-6850
▁coop	-6851
▁Marie	-6852
▁Queen	-6853
▁glued	-6854
▁stopping	-6855
▁encouraging	-6856
Put	-6857
atur	-6858
obody	-6859
▁Play	-6860
ertain	-6861
▁spins	-6862
▁objects	-6863
▁pleasure	-6864
▁curiously	-6865
▁strongest	-6866
▁elf	-6867
Guess	-6868
▁Zoey	-6869
▁coup	-6870
▁pops	-6871
▁puff	-6872
▁Willy	-6873
▁pouted	-6874
▁blinking	-6875
▁creations	-6876
▁including	-6877
Vroom	-6878
▁Davey	-6879
▁maker	-6880
▁roars	-6881
▁suffered	-6882
▁talented	-6883
▁delivering	-6884
▁neighbours	-6885
Very	-6886
▁Hug	-6887
▁Win	-6888
▁moo	-6889
oring	-6890
▁Judy	-6891
▁ends	-6892
▁belts	-6893
▁tying	-6894
▁artist	-6895
▁labels	-6896
▁stroked	-6897
▁vanilla	-6898
▁widened	-6899
▁gardener	-6900
▁Kit	-6901
▁unw	-6902
ashes	-6903
▁Holly	-6904
▁prove	-6905
▁Farmer	-6906
▁center	-6907
▁slowed	-6908
▁designs	-6909
▁turtles	-6910
▁zipping	-6911
▁creativity	-6912
arac	-6913
▁Wise	-6914
▁Sleep	-6915
▁merma	-6916
▁Granny	-6917
▁robots	-6918
▁secure	-6919
▁raccoon	-6920
▁bandages	-6921
▁suits	-6922
▁squeezing	-6923
▁wept	-6924
▁Rollie	-6925
▁charac	-6926
▁explod	-6927
▁queens	-6928
▁rumble	-6929
▁screws	-6930
▁lessons	-6931
▁respond	-6932
▁watering	-6933
▁groceries	-6934
▁aud	-6935
▁yum	-6936
▁beam	-6937
▁firmly	-6938
▁hotter	-6939
▁presses	-6940
▁seasons	-6941
▁haircuts	-6942
▁vehicles	-6943
▁afterwards	-6944
cho	-6945
▁ais	-6946
▁dip	-6947
▁icing	-6948
▁angels	-6949
▁couple	-6950
▁bathing	-6951
▁seconds	-6952
▁discussed	-6953
▁raindrops	-6954
▁surroundings	-6955
ael	-6956
rom	-6957
Jump	-6958
Like	-6959
osen	-6960
▁miles	-6961
▁sails	-6962
ighting	-6963
▁chosen	-6964
▁minded	-6965
▁swimmer	-6966
▁stitches	-6967
jo	-6968
the	-6969
Bang	-6970
▁Sim	-6971
▁def	-6972
ading	-6973
▁peck	-6974
ushing	-6975
▁screwd	-6976
▁flipped	-6977
▁familiar	-6978
alph	-6979
fall	-6980
ments	-6981
▁tigers	-6982
▁overcome	-6983
Get	-6984
inny	-6985
▁Ana	-6986
▁Exc	-6987
▁drif	-6988
ummies	-6989
▁thorns	-6990
▁hangers	-6991
▁willing	-6992
▁scooters	-6993
cept	-6994
Quack	-6995
ipper	-6996
lling	-6997
▁todd	-6998
▁health	-6999
▁snowfl	-7000
▁sports	-7001
▁firefighter	-7002
wk	-7003
!”.	-7004
pecting	-7005
▁creamy	-7006
▁screwdriver	-7007
iti	-7008
iley	-7009
▁Bra	-7010
▁bubb	-7011
▁Since	-7012
▁Wendy	-7013
▁daring	-7014
▁master	-7015
▁slices	-7016
▁temper	-7017
▁tighter	-7018
▁tummies	-7019
▁audience	-7020
antha	-7021
▁bits	-7022
▁flip	-7023
▁jars	-7024
▁sped	-7025
▁Ralph	-7026
▁joins	-7027
▁Maddie	-7028
▁burrow	-7029
▁wobbly	-7030
▁pedaled	-7031
▁reminds	-7032
▁sailors	-7033
▁panicked	-7034
▁respected	-7035
▁surfboard	-7036
▁performing	-7037
▁Wo	-7038
ipes	-7039
▁Des	-7040
▁Yog	-7041
ilted	-7042
while	-7043
▁wadd	-7044
▁shown	-7045
▁spits	-7046
▁sheets	-7047
▁streets	-7048
▁trembled	-7049
rat	-7050
▁ev	-7051
Boys	-7052
▁det	-7053
bbled	-7054
▁echo	-7055
parent	-7056
▁fills	-7057
Goodnight	-7058
▁Samantha	-7059
▁crossing	-7060
▁disturbing	-7061
ably	-7062
▁glee	-7063
▁Simon	-7064
▁bully	-7065
▁elbow	-7066
▁amount	-7067
▁sprang	-7068
▁waking	-7069
▁cleaner	-7070
▁heading	-7071
▁pigeons	-7072
▁nervously	-7073
▁aeroplanes	-7074
oni	-7075
▁Ph	-7076
ilda	-7077
onies	-7078
▁Stan	-7079
▁lace	-7080
▁Nobody	-7081
▁weekend	-7082
een	-7083
▁Meg	-7084
▁cor	-7085
child	-7086
▁pays	-7087
ichael	-7088
▁pupils	-7089
▁sharks	-7090
▁scraped	-7091
▁squishy	-7092
▁thoughts	-7093
▁Turt	-7094
▁chip	-7095
▁notes	-7096
▁Excited	-7097
▁mermaid	-7098
▁mixture	-7099
▁grandparent	-7100
Mimi	-7101
▁shady	-7102
▁Mother	-7103
▁tested	-7104
▁coloured	-7105
▁Everybody	-7106
▁intrigued	-7107
▁materials	-7108
▁terrified	-7109
cover	-7110
▁Mean	-7111
▁nuzz	-7112
▁sill	-7113
Ribbit	-7114
▁teams	-7115
▁Prince	-7116
▁giggles	-7117
▁licking	-7118
▁manners	-7119
▁believing	-7120
▁University	-7121
▁gracefully	-7122
iona	-7123
▁Isn	-7124
▁Sof	-7125
▁Viv	-7126
▁Tess	-7127
▁mast	-7128
▁loses	-7129
▁wisely	-7130
▁Michael	-7131
▁Tweetie	-7132
▁drawers	-7133
▁shovels	-7134
▁stacked	-7135
▁Although	-7136
▁forgiven	-7137
▁arr	-7138
print	-7139
▁Dina	-7140
▁crew	-7141
ongrat	-7142
▁sprinkled	-7143
cake	-7144
immy	-7145
▁Dani	-7146
▁Jonny	-7147
▁Momma	-7148
▁ponies	-7149
▁recipe	-7150
▁changes	-7151
▁resisted	-7152
fly	-7153
rac	-7154
Dear	-7155
▁bru	-7156
ently	-7157
▁Desp	-7158
▁Titi	-7159
▁hawk	-7160
▁tiss	-7161
▁disob	-7162
▁spice	-7163
umbling	-7164
▁cloudy	-7165
▁Meanwhile	-7166
rier	-7167
▁Soft	-7168
▁coug	-7169
Alright	-7170
attered	-7171
▁frowns	-7172
▁napped	-7173
ongratul	-7174
▁oysters	-7175
▁temperature	-7176
▁2	-7177
elie	-7178
▁Pen	-7179
▁Nice	-7180
▁Ruff	-7181
▁beeh	-7182
▁dump	-7183
▁ease	-7184
unched	-7185
▁Fiona	-7186
▁Sofia	-7187
▁matey	-7188
▁spies	-7189
▁gazing	-7190
▁wiggly	-7191
ssssssss	-7192
▁symbols	-7193
▁covering	-7194
ca	-7195
ita	-7196
uel	-7197
▁Gl	-7198
onna	-7199
amboo	-7200
▁Poor	-7201
▁Bally	-7202
▁Zippy	-7203
▁sandy	-7204
▁cheers	-7205
▁tasting	-7206
▁yielded	-7207
▁bicycles	-7208
▁pinching	-7209
▁grandchild	-7210
Bl	-7211
ats	-7212
awn	-7213
▁Well	-7214
▁Chewy	-7215
▁Jacky	-7216
▁flown	-7217
▁sweep	-7218
▁Amelia	-7219
▁rescuing	-7220
All	-7221
Moo	-7222
▁Fe	-7223
zoom	-7224
Doggy	-7225
▁Todd	-7226
▁aren	-7227
▁darl	-7228
▁evil	-7229
▁lent	-7230
▁polar	-7231
▁crowns	-7232
▁dreamt	-7233
▁humans	-7234
▁longest	-7235
▁singers	-7236
▁darlings	-7237
▁hesitant	-7238
▁magician	-7239
▁speeding	-7240
asty	-7241
Billy	-7242
▁Mixy	-7243
▁Vivi	-7244
▁lies	-7245
▁nood	-7246
▁Sadie	-7247
▁anger	-7248
▁seals	-7249
▁Turtle	-7250
▁beehive	-7251
▁beloved	-7252
▁puzzled	-7253
On	-7254
shm	-7255
line	-7256
Hurry	-7257
▁grip	-7258
▁rats	-7259
▁Maddy	-7260
▁Puppy	-7261
▁neare	-7262
▁wrink	-7263
▁donkey	-7264
▁stroke	-7265
▁tissue	-7266
▁healing	-7267
▁results	-7268
▁backpacks	-7269
isc	-7270
ddie	-7271
erate	-7272
▁Ricky	-7273
▁blast	-7274
▁orders	-7275
shmallow	-7276
▁Fighting	-7277
▁lipstick	-7278
▁paintbrush	-7279
▁peacefully	-7280
cused	-7281
unity	-7282
ighing	-7283
▁Patty	-7284
▁gonna	-7285
▁reass	-7286
▁bamboo	-7287
▁seller	-7288
▁rushing	-7289
▁travelled	-7290
▁instruments	-7291
'."	-7292
erm	-7293
Keep	-7294
ntil	-7295
▁Loop	-7296
▁Yoga	-7297
freeze	-7298
▁Spirit	-7299
▁Outside	-7300
▁joining	-7301
▁postman	-7302
▁fluttered	-7303
▁scattering	-7304
hew	-7305
▁10	-7306
form	-7307
▁Yet	-7308
verse	-7309
▁Okay	-7310
▁Wooly	-7311
▁fleas	-7312
▁guide	-7313
▁Blinky	-7314
▁solving	-7315
▁wasting	-7316
ggy	-7317
rect	-7318
▁Nut	-7319
▁Say	-7320
Which	-7321
arrow	-7322
▁Until	-7323
▁edges	-7324
▁Flappy	-7325
▁knives	-7326
▁enthusiasm	-7327
Fin	-7328
ecca	-7329
▁Ali	-7330
▁Cow	-7331
▁Luc	-7332
orter	-7333
▁Bess	-7334
▁gest	-7335
ounced	-7336
▁height	-7337
▁toward	-7338
▁Despite	-7339
▁drifted	-7340
▁encount	-7341
▁greeted	-7342
▁noodles	-7343
▁toddler	-7344
▁handsome	-7345
▁apologised	-7346
rup	-7347
▁Cu	-7348
fire	-7349
Daisy	-7350
▁Back	-7351
▁Chess	-7352
▁Maisy	-7353
▁burnt	-7354
▁taped	-7355
▁stored	-7356
▁crashing	-7357
▁whistles	-7358
▁mesmerized	-7359
▁Kip	-7360
ibble	-7361
▁Fairy	-7362
▁Piggy	-7363
▁faded	-7364
▁prick	-7365
▁purrs	-7366
▁banged	-7367
immering	-7368
▁Ke	-7369
tock	-7370
▁Eliz	-7371
▁Eddie	-7372
▁focus	-7373
▁scient	-7374
▁benches	-7375
▁focused	-7376
▁breathed	-7377
▁business	-7378
▁smelling	-7379
▁displayed	-7380
▁punishment	-7381
bell	-7382
▁Bubb	-7383
▁Navy	-7384
▁Ruth	-7385
▁adds	-7386
▁ramp	-7387
▁Judge	-7388
▁camel	-7389
▁pills	-7390
▁correct	-7391
▁dripping	-7392
▁sweetest	-7393
▁magazines	-7394
▁scientist	-7395
▁mosquitoes	-7396
agic	-7397
bage	-7398
crow	-7399
Tweet	-7400
▁aware	-7401
▁wider	-7402
▁adults	-7403
▁floors	-7404
▁simply	-7405
▁delayed	-7406
▁repeating	-7407
▁throughout	-7408
▁marshmallow	-7409
▁5	-7410
abby	-7411
wise	-7412
found	-7413
▁Time	-7414
▁germ	-7415
▁risks	-7416
▁within	-7417
▁yelped	-7418
▁Sparkle	-7419
▁annoyed	-7420
▁bellies	-7421
▁switched	-7422
▁worrying	-7423
▁encouragement	-7424
Kids	-7425
opes	-7426
▁Herb	-7427
ashing	-7428
▁melons	-7429
▁potion	-7430
▁tilted	-7431
▁slither	-7432
▁sniffing	-7433
▁teachers	-7434
▁sandcastles	-7435
rap	-7436
rey	-7437
Leave	-7438
years	-7439
▁Gary	-7440
▁flaps	-7441
▁Shelly	-7442
▁failed	-7443
▁burying	-7444
▁planting	-7445
▁quarreled	-7446
▁unpacking	-7447
▁understands	-7448
rie	-7449
aint	-7450
aven	-7451
▁Eva	-7452
▁Min	-7453
▁sou	-7454
uffin	-7455
isions	-7456
▁bulbs	-7457
▁force	-7458
▁sweaty	-7459
▁Another	-7460
▁purpose	-7461
▁spoonful	-7462
▁scarecrow	-7463
▁waterfall	-7464
▁astronauts	-7465
▁newspapers	-7466
First	-7467
▁rays	-7468
▁Start	-7469
▁swirl	-7470
▁beeped	-7471
▁flight	-7472
▁tearing	-7473
▁behavior	-7474
▁breathing	-7475
▁permitted	-7476
acy	-7477
mies	-7478
▁Kelly	-7479
▁Still	-7480
▁locks	-7481
▁braver	-7482
▁except	-7483
▁months	-7484
▁shines	-7485
▁William	-7486
▁plucked	-7487
▁dressing	-7488
▁nightmares	-7489
ulp	-7490
ousy	-7491
▁caw	-7492
▁und	-7493
Quick	-7494
ended	-7495
ition	-7496
▁Jojo	-7497
▁Katy	-7498
▁insp	-7499
▁scen	-7500
▁Honey	-7501
▁strips	-7502
▁coloring	-7503
▁characters	-7504
In	-7505
For	-7506
▁sy	-7507
▁Flo	-7508
▁Jax	-7509
▁Elsa	-7510
▁files	-7511
▁pound	-7512
▁runner	-7513
urrender	-7514
▁address	-7515
▁baskets	-7516
▁prayers	-7517
▁smashed	-7518
▁relaxing	-7519
▁decisions	-7520
▁destroying	-7521
ears	-7522
▁Elle	-7523
▁Mint	-7524
▁Mindy	-7525
▁nasty	-7526
▁snaps	-7527
▁snuck	-7528
▁Daniel	-7529
▁Shadow	-7530
▁crawls	-7531
▁opport	-7532
▁spills	-7533
▁sprout	-7534
▁certain	-7535
▁waddled	-7536
▁brushing	-7537
▁politely	-7538
▁twinkled	-7539
▁birdhouse	-7540
▁snowflakes	-7541
▁Ne	-7542
▁Joh	-7543
igger	-7544
steps	-7545
▁clue	-7546
▁worn	-7547
▁Truck	-7548
▁checks	-7549
▁creams	-7550
▁grassy	-7551
▁freedom	-7552
▁gesture	-7553
▁finishing	-7554
▁footsteps	-7555
Sn	-7556
▁Im	-7557
▁Cro	-7558
▁form	-7559
Shrink	-7560
▁Angel	-7561
▁Megan	-7562
▁Mousy	-7563
▁final	-7564
▁stomp	-7565
▁Frankie	-7566
▁pleaded	-7567
▁sneezes	-7568
▁soaking	-7569
▁grandparents	-7570
--	-7571
Open	-7572
rest	-7573
▁Gus	-7574
▁Ria	-7575
▁hoo	-7576
dding	-7577
mates	-7578
ppies	-7579
▁char	-7580
▁Razor	-7581
▁manag	-7582
▁weeds	-7583
▁Muffin	-7584
▁battle	-7585
▁charge	-7586
▁onward	-7587
▁peeled	-7588
▁scares	-7589
▁despite	-7590
▁efforts	-7591
▁rustling	-7592
▁reminding	-7593
Zoom	-7594
▁inj	-7595
▁spy	-7596
ening	-7597
▁Show	-7598
▁plot	-7599
iscuit	-7600
▁Fishy	-7601
▁ships	-7602
▁wrigg	-7603
▁magnif	-7604
▁wounds	-7605
▁shorter	-7606
▁talents	-7607
▁doorbell	-7608
▁presented	-7609
▁refreshing	-7610
▁Ot	-7611
Play	-7612
▁Fel	-7613
▁Pop	-7614
▁Rel	-7615
▁Make	-7616
▁puck	-7617
▁tuck	-7618
▁backs	-7619
▁sacks	-7620
▁cracks	-7621
alloween	-7622
▁damaged	-7623
▁hunters	-7624
▁snuggle	-7625
▁newfound	-7626
▁squeaked	-7627
aver	-7628
rons	-7629
▁nur	-7630
ollen	-7631
veral	-7632
▁Mina	-7633
▁Rita	-7634
▁Wait	-7635
▁sets	-7636
abelle	-7637
▁tubes	-7638
▁Taking	-7639
▁aprons	-7640
▁bitten	-7641
▁bravest	-7642
▁poppies	-7643
▁several	-7644
▁swollen	-7645
▁forgives	-7646
▁opinions	-7647
▁languages	-7648
▁questioned	-7649
▁appreciation	-7650
Un	-7651
cc	-7652
beep	-7653
lied	-7654
rily	-7655
▁occ	-7656
Someone	-7657
▁sadder	-7658
▁grandson	-7659
▁stepping	-7660
▁bothering	-7661
▁connected	-7662
Arrr	-7663
retty	-7664
▁curl	-7665
▁rows	-7666
orking	-7667
▁Becky	-7668
▁Biggy	-7669
▁aisle	-7670
▁foxes	-7671
▁leapt	-7672
▁Curious	-7673
▁clicked	-7674
▁nodding	-7675
▁probably	-7676
?!"	-7677
Too	-7678
ots	-7679
Choo	-7680
▁Any	-7681
osite	-7682
roken	-7683
shadow	-7684
▁burns	-7685
▁squir	-7686
▁twists	-7687
▁cheated	-7688
▁testing	-7689
▁treated	-7690
▁opposite	-7691
▁uniforms	-7692
▁Halloween	-7693
Big	-7694
omp	-7695
▁Te	-7696
▁Har	-7697
▁mood	-7698
▁sens	-7699
▁yumm	-7700
▁minds	-7701
▁warri	-7702
▁Louise	-7703
▁Seeing	-7704
▁fights	-7705
▁proper	-7706
▁scolds	-7707
▁serving	-7708
▁toolbox	-7709
▁bothered	-7710
Tw	-7711
Try	-7712
▁Se	-7713
Jane	-7714
Wake	-7715
oger	-7716
what	-7717
▁bud	-7718
▁Gray	-7719
▁clip	-7720
▁cond	-7721
undred	-7722
▁glitt	-7723
▁rowed	-7724
▁shrank	-7725
▁sirens	-7726
▁causing	-7727
▁doorway	-7728
▁dresser	-7729
▁handing	-7730
▁invites	-7731
▁shinier	-7732
▁sternly	-7733
ails	-7734
irac	-7735
▁Cle	-7736
▁Tri	-7737
▁odd	-7738
▁trot	-7739
oscope	-7740
▁Bubba	-7741
▁Grand	-7742
▁cells	-7743
▁traps	-7744
▁Amanda	-7745
▁Andrew	-7746
▁joyful	-7747
▁carries	-7748
omb	-7749
Brrr	-7750
iens	-7751
▁Bri	-7752
▁Mae	-7753
▁Rub	-7754
▁goo	-7755
▁Eric	-7756
▁Flop	-7757
▁hiss	-7758
▁Janey	-7759
▁cares	-7760
▁scamp	-7761
▁aliens	-7762
▁collap	-7763
▁floats	-7764
▁becomes	-7765
▁robbers	-7766
▁supplied	-7767
▁sweaters	-7768
▁designing	-7769
▁encountered	-7770
ana	-7771
▁Bad	-7772
▁gap	-7773
Trust	-7774
▁conc	-7775
▁ouch	-7776
▁Nurse	-7777
▁dears	-7778
covered	-7779
reverse	-7780
▁explorer	-7781
▁passengers	-7782
Em	-7783
So	-7784
erk	-7785
▁Ty	-7786
Luna	-7787
▁tar	-7788
Every	-7789
romise	-7790
▁Roger	-7791
▁attem	-7792
▁necks	-7793
▁disobey	-7794
▁honking	-7795
▁explains	-7796
▁massages	-7797
▁slapping	-7798
▁accidents	-7799
▁expecting	-7800
off	-7801
llas	-7802
▁Cari	-7803
▁Satur	-7804
▁flips	-7805
▁germs	-7806
▁pokes	-7807
▁squaw	-7808
▁steth	-7809
initely	-7810
▁Floppy	-7811
▁Zipper	-7812
▁convin	-7813
▁cowboy	-7814
▁inches	-7815
▁bounces	-7816
▁engines	-7817
▁hundred	-7818
▁mommies	-7819
▁student	-7820
▁Saturday	-7821
▁diamonds	-7822
▁envelopes	-7823
▁expression	-7824
,'	-7825
po	-7826
▁Ag	-7827
asha	-7828
▁nib	-7829
Ollie	-7830
andas	-7831
▁swap	-7832
▁cheat	-7833
▁offic	-7834
▁pipes	-7835
▁action	-7836
▁killed	-7837
▁models	-7838
▁neatly	-7839
▁Whoever	-7840
▁nibbled	-7841
▁stamped	-7842
▁campfire	-7843
▁cupcakes	-7844
▁trusting	-7845
▁prevented	-7846
▁umbrellas	-7847
Hmm	-7848
ibi	-7849
ooks	-7850
▁rout	-7851
▁Jumpy	-7852
▁Ready	-7853
▁Speed	-7854
▁goats	-7855
▁nearly	-7856
▁obeyed	-7857
▁cottage	-7858
▁lowered	-7859
▁threads	-7860
▁discussing	-7861
▁stethoscope	-7862
stalk	-7863
udged	-7864
▁decl	-7865
▁defe	-7866
▁Share	-7867
▁zooms	-7868
▁combed	-7869
▁messes	-7870
Whiskers	-7871
▁minding	-7872
▁statues	-7873
▁knocking	-7874
▁realizes	-7875
▁beanstalk	-7876
▁responded	-7877
▁belongings	-7878
.'"	-7879
▁Ar	-7880
▁Oh	-7881
▁Sir	-7882
▁Jean	-7883
▁cons	-7884
broken	-7885
▁Jason	-7886
▁Sasha	-7887
▁antic	-7888
▁groan	-7889
▁whimp	-7890
▁Missile	-7891
▁picnics	-7892
▁rewards	-7893
▁weapons	-7894
▁although	-7895
▁offering	-7896
▁spoiling	-7897
▁traveling	-7898
yd	-7899
▁Ju	-7900
▁Pl	-7901
Soon	-7902
oosh	-7903
otte	-7904
▁Wil	-7905
inger	-7906
▁Bert	-7907
▁disc	-7908
▁Shark	-7909
▁dollar	-7910
▁target	-7911
▁Flutter	-7912
▁convers	-7913
▁quieter	-7914
▁scampered	-7915
▁definitely	-7916
▁marshmallows	-7917
An	-7918
Does	-7919
Magic	-7920
▁self	-7921
▁Kevin	-7922
▁Nancy	-7923
▁Softy	-7924
▁blond	-7925
▁meows	-7926
▁upside	-7927
▁swallow	-7928
▁Startled	-7929
▁Tomorrow	-7930
▁demanding	-7931
▁streamers	-7932
▁welcoming	-7933
sol	-7934
inch	-7935
unes	-7936
athan	-7937
▁deed	-7938
▁lapt	-7939
prints	-7940
▁Jolly	-7941
▁Terry	-7942
▁Tippy	-7943
▁tempt	-7944
▁tests	-7945
atitude	-7946
▁scoops	-7947
▁exploded	-7948
▁Charlotte	-7949
▁congratul	-7950
▁stretches	-7951
▁fluttering	-7952
▁friendships	-7953
Fr	-7954
▁Joan	-7955
▁Joke	-7956
▁buddy	-7957
▁clerk	-7958
▁drown	-7959
▁reapp	-7960
▁pandas	-7961
▁skirts	-7962
▁sprays	-7963
▁chopped	-7964
▁cleared	-7965
▁coughed	-7966
▁yawning	-7967
▁declared	-7968
▁correctly	-7969
▁springing	-7970
▁unfortunately	-7971
val	-7972
Nice	-7973
iment	-7974
ument	-7975
▁Wolf	-7976
▁Gerry	-7977
▁bless	-7978
▁erase	-7979
▁attack	-7980
▁calmly	-7981
▁ghosts	-7982
▁laptop	-7983
▁visits	-7984
▁closing	-7985
▁gratitude	-7986
byes	-7987
five	-7988
▁Hor	-7989
▁Rat	-7990
▁Reb	-7991
order	-7992
▁Bang	-7993
▁Bibi	-7994
▁Boat	-7995
▁cafe	-7996
▁dial	-7997
▁Tammy	-7998
▁awful	-7999
▁forts	-8000
▁munch	-8001
▁wiser	-8002
▁Monkey	-8003
▁Quacky	-8004
▁spices	-8005
▁unable	-8006
▁Rebecca	-8007
▁nuzzled	-8008
▁whoever	-8009
▁goodbyes	-8010
Blue	-8011
vant	-8012
▁aim	-8013
▁Zack	-8014
▁caps	-8015
▁Amber	-8016
▁Eliza	-8017
▁Elsie	-8018
▁Vroom	-8019
▁beaver	-8020
▁dodged	-8021
▁shorts	-8022
▁anticip	-8023
▁environ	-8024
▁winners	-8025
▁freezing	-8026
▁weighing	-8027
hel	-8028
bbit	-8029
onnie	-8030
▁Lina	-8031
▁Toys	-8032
father	-8033
▁Flick	-8034
▁Nutty	-8035
▁Bobbie	-8036
▁cotton	-8037
▁echoed	-8038
▁tumbled	-8039
▁activity	-8040
▁crystals	-8041
▁journeys	-8042
▁examining	-8043
▁chocolates	-8044
▁footprints	-8045
▁environment	-8046
lo	-8047
alf	-8048
Tree	-8049
▁Off	-8050
Chirp	-8051
▁Fort	-8052
▁Mine	-8053
▁bomb	-8054
▁type	-8055
▁Dotty	-8056
▁court	-8057
▁occas	-8058
▁playd	-8059
▁parted	-8060
▁storms	-8061
▁garbage	-8062
▁inspired	-8063
▁enjoyable	-8064
▁increasing	-8065
▁scratching	-8066
▁anticipation	-8067
His	-8068
iri	-8069
elon	-8070
▁plug	-8071
▁awoke	-8072
▁posit	-8073
▁shall	-8074
▁comets	-8075
▁whales	-8076
▁beetles	-8077
▁cheaper	-8078
▁cowboys	-8079
▁gobbled	-8080
▁honesty	-8081
▁humming	-8082
▁trigger	-8083
▁supporting	-8084
▁heartbroken	-8085
▁Ed	-8086
alth	-8087
▁Jet	-8088
Bunny	-8089
asers	-8090
match	-8091
▁Rosa	-8092
▁fant	-8093
▁jugg	-8094
▁Vicky	-8095
▁snowy	-8096
▁Butter	-8097
▁scurry	-8098
▁twenty	-8099
▁cuddles	-8100
▁travels	-8101
▁annoying	-8102
▁customer	-8103
▁convinced	-8104
▁dragonfly	-8105
▁insisting	-8106
▁reassured	-8107
▁responsib	-8108
▁applauding	-8109
▁suggestion	-8110
▁Fortunately	-8111
',	-8112
ooky	-8113
worm	-8114
Molly	-8115
ellow	-8116
emies	-8117
▁More	-8118
▁Waff	-8119
Friend	-8120
Should	-8121
▁Bingo	-8122
▁Light	-8123
▁Yummy	-8124
▁rails	-8125
erpiece	-8126
▁Squeak	-8127
▁nibble	-8128
▁nights	-8129
▁prizes	-8130
▁warmly	-8131
▁washes	-8132
▁enemies	-8133
▁patches	-8134
▁spilling	-8135
▁thanking	-8136
▁admiration	-8137
vy	-8138
▁—	-8139
Ball	-8140
Only	-8141
etah	-8142
usty	-8143
▁Man	-8144
▁Sil	-8145
▁tin	-8146
melon	-8147
ngest	-8148
ounce	-8149
rench	-8150
▁Feel	-8151
▁cosy	-8152
▁mats	-8153
elieve	-8154
ifully	-8155
▁Bumpy	-8156
▁coach	-8157
▁mirac	-8158
▁novels	-8159
▁marking	-8160
▁sincere	-8161
▁approach	-8162
▁youngest	-8163
▁fantastic	-8164
▁watermelon	-8165
Ahoy	-8166
▁Baa	-8167
water	-8168
▁Jenn	-8169
▁Otto	-8170
▁owns	-8171
▁Mixie	-8172
▁Never	-8173
▁bride	-8174
▁cages	-8175
▁haird	-8176
▁hooks	-8177
▁poses	-8178
▁Pretty	-8179
▁hisses	-8180
▁passes	-8181
▁stores	-8182
▁stroll	-8183
▁wealth	-8184
▁Freddie	-8185
▁Playing	-8186
▁cheetah	-8187
▁erasers	-8188
▁loudest	-8189
▁experien	-8190
▁returning	-8191
▁decoration	-8192
▁masterpiece	-8193
oor	-8194
sey	-8195
emma	-8196
▁Cut	-8197
Jimmy	-8198
▁Oliv	-8199
▁Step	-8200
▁rely	-8201
▁examp	-8202
▁faint	-8203
▁cleans	-8204
▁sleeps	-8205
▁raising	-8206
▁signing	-8207
▁customers	-8208
▁whispering	-8209
ici	-8210
▁shh	-8211
stand	-8212
▁rips	-8213
▁snug	-8214
▁topp	-8215
boards	-8216
▁Barry	-8217
▁Chick	-8218
▁chews	-8219
▁faith	-8220
▁moons	-8221
▁badger	-8222
▁fishes	-8223
▁scores	-8224
▁Thunder	-8225
▁arranged	-8226
mine	-8227
quet	-8228
▁fet	-8229
iving	-8230
▁Nora	-8231
▁limp	-8232
▁vegg	-8233
▁syrup	-8234
▁Steven	-8235
▁affect	-8236
▁cocoon	-8237
▁messed	-8238
▁pilots	-8239
▁shares	-8240
▁sooner	-8241
▁weighs	-8242
ordinary	-8243
▁bluebird	-8244
▁finishes	-8245
▁officers	-8246
▁recorder	-8247
▁stuffing	-8248
▁generosity	-8249
onse	-8250
ugar	-8251
▁Set	-8252
▁bou	-8253
▁dep	-8254
▁ill	-8255
bbing	-8256
ingly	-8257
uster	-8258
▁Mila	-8259
▁mugs	-8260
▁nets	-8261
▁vests	-8262
▁worst	-8263
ilities	-8264
▁Auntie	-8265
▁afford	-8266
▁brains	-8267
▁bouquet	-8268
▁prickly	-8269
▁zigzags	-8270
▁duckling	-8271
▁response	-8272
▁exercises	-8273
▁comforting	-8274
▁travelling	-8275
Joe	-8276
ssy	-8277
▁Ky	-8278
Find	-8279
Grow	-8280
issa	-8281
pril	-8282
▁Fle	-8283
▁jud	-8284
elope	-8285
ircle	-8286
▁Cook	-8287
▁Life	-8288
▁exch	-8289
▁thie	-8290
ugging	-8291
▁Brian	-8292
▁bends	-8293
▁unfair	-8294
chievous	-8295
▁attempt	-8296
▁argument	-8297
▁guarding	-8298
▁yummiest	-8299
▁behaviour	-8300
▁beautifully	-8301
▁mischievous	-8302
▁particularly	-8303
Pe	-8304
Baa	-8305
hell	-8306
▁Fix	-8307
▁Tre	-8308
Honey	-8309
Teddy	-8310
inted	-8311
▁Cici	-8312
▁Phil	-8313
▁Cloud	-8314
▁Riley	-8315
▁coral	-8316
▁laces	-8317
▁Hopper	-8318
▁active	-8319
▁tidied	-8320
▁dangers	-8321
▁thieves	-8322
▁trotted	-8323
▁packages	-8324
▁smartest	-8325
▁tricycle	-8326
▁providing	-8327
▁rewarding	-8328
▁Microscope	-8329
▁opportunity	-8330
▁extraordinary	-8331
Ab	-8332
▁loc	-8333
▁reun	-8334
▁tips	-8335
▁Felix	-8336
▁Hello	-8337
▁Sweet	-8338
▁momma	-8339
▁stall	-8340
▁Olivia	-8341
▁earned	-8342
daughter	-8343
▁angrily	-8344
▁biscuit	-8345
▁manager	-8346
▁visitor	-8347
▁applause	-8348
▁driveway	-8349
▁visitors	-8350
▁wrinkled	-8351
▁classmates	-8352
▁experienced	-8353
▁frustration	-8354
ror	-8355
▁Ac	-8356
Mark	-8357
apot	-8358
▁Math	-8359
▁Riri	-8360
▁jets	-8361
▁moat	-8362
elling	-8363
▁Tessa	-8364
▁scent	-8365
▁Waffle	-8366
▁jumper	-8367
▁nurses	-8368
▁otters	-8369
▁satisf	-8370
▁styles	-8371
▁teapot	-8372
▁whined	-8373
▁Rainbow	-8374
▁luckily	-8375
▁woodcut	-8376
▁Annabelle	-8377
▁explaining	-8378
▁surrendered	-8379
reg	-8380
Jill	-8381
ative	-8382
▁Pick	-8383
▁soot	-8384
action	-8385
ending	-8386
▁April	-8387
▁Match	-8388
▁elect	-8389
▁gasps	-8390
▁soapy	-8391
▁types	-8392
Sharing	-8393
▁sipped	-8394
▁ability	-8395
▁emerged	-8396
▁flashed	-8397
▁steering	-8398
▁slithered	-8399
▁automobiles	-8400
▁congratulated	-8401
Leo	-8402
cat	-8403
over	-8404
rate	-8405
Bella	-8406
▁bond	-8407
▁tops	-8408
creams	-8409
▁strum	-8410
▁bubbly	-8411
▁expert	-8412
▁invent	-8413
▁buckled	-8414
▁example	-8415
▁groaned	-8416
▁veggies	-8417
▁Penelope	-8418
▁desserts	-8419
▁rumbling	-8420
▁toothbrush	-8421
▁windowsill	-8422
▁grandfather	-8423
▁invitations	-8424
▁Fly	-8425
▁sav	-8426
tment	-8427
▁Gill	-8428
▁Liza	-8429
▁Pine	-8430
▁vibr	-8431
▁Candy	-8432
▁Janet	-8433
▁Lucas	-8434
▁Tyler	-8435
▁towns	-8436
welcome	-8437
▁chilly	-8438
▁spears	-8439
▁beaming	-8440
▁forests	-8441
▁tickles	-8442
▁troubles	-8443
▁collapsed	-8444
▁woodcutter	-8445
Eat	-8446
fus	-8447
pit	-8448
Once	-8449
▁Too	-8450
▁rin	-8451
Sarah	-8452
▁Yawn	-8453
shaped	-8454
▁Flora	-8455
▁Gabby	-8456
▁Hurry	-8457
▁Magic	-8458
▁Pinch	-8459
▁Right	-8460
▁beaks	-8461
▁conqu	-8462
▁craft	-8463
▁fries	-8464
▁Buster	-8465
▁Silver	-8466
▁gardens	-8467
▁warrior	-8468
▁crocodiles	-8469
▁foreshadow	-8470
▁discoveries	-8471
sn	-8472
▁Hi	-8473
edic	-8474
good	-8475
▁Does	-8476
▁afar	-8477
▁born	-8478
▁icky	-8479
▁Achoo	-8480
▁Twist	-8481
▁White	-8482
▁rhino	-8483
▁shooed	-8484
▁Helping	-8485
▁Matilda	-8486
▁bruises	-8487
▁mindful	-8488
▁nearest	-8489
▁hairdress	-8490
▁observing	-8491
▁appreciated	-8492
▁forgiveness	-8493
▁4	-8494
bee	-8495
ili	-8496
sie	-8497
▁Ba	-8498
Emma	-8499
free	-8500
lers	-8501
▁Day	-8502
▁Pig	-8503
▁Tip	-8504
▁Use	-8505
agine	-8506
▁acts	-8507
▁digs	-8508
▁foam	-8509
▁Cammy	-8510
▁Moppy	-8511
▁Super	-8512
▁beast	-8513
▁habit	-8514
▁hatch	-8515
▁leans	-8516
▁scram	-8517
▁thump	-8518
▁Ashley	-8519
▁Tweety	-8520
▁common	-8521
▁kinder	-8522
▁Feeling	-8523
▁connect	-8524
▁electric	-8525
▁inchworm	-8526
▁quacking	-8527
▁brightest	-8528
▁experiences	-8529
▁hairdresser	-8530
Shoo	-8531
abra	-8532
▁Alf	-8533
▁Ice	-8534
▁Mus	-8535
▁tor	-8536
Climb	-8537
Mouse	-8538
otion	-8539
▁Mart	-8540
▁peep	-8541
▁robe	-8542
▁suck	-8543
▁Snake	-8544
▁actor	-8545
▁bathed	-8546
▁levers	-8547
▁ribbit	-8548
▁flowing	-8549
▁thicker	-8550
▁attitude	-8551
▁cheerfully	-8552
▁Of	-8553
Remy	-8554
owled	-8555
▁Duke	-8556
▁owls	-8557
▁pose	-8558
adabra	-8559
etchup	-8560
▁Jelly	-8561
▁Tiger	-8562
▁costs	-8563
▁foggy	-8564
▁teles	-8565
▁trans	-8566
▁Bonnie	-8567
▁guards	-8568
▁clearly	-8569
▁squeaky	-8570
▁snapping	-8571
▁squeezes	-8572
▁announced	-8573
▁attaching	-8574
▁scurrying	-8575
▁App	-8576
Never	-8577
▁Heli	-8578
▁cops	-8579
▁zips	-8580
Chirpy	-8581
Danger	-8582
▁medals	-8583
▁Quickly	-8584
▁miracle	-8585
▁puppets	-8586
▁flashing	-8587
▁movements	-8588
▁scrambled	-8589
▁telescope	-8590
▁conversation	-8591
lt	-8592
how	-8593
Want	-8594
ebby	-8595
▁Sal	-8596
acles	-8597
▁Past	-8598
▁Ring	-8599
▁fans	-8600
aptain	-8601
ouched	-8602
▁Berry	-8603
▁binoc	-8604
Friends	-8605
Grandpa	-8606
▁Slinky	-8607
▁arrest	-8608
▁shrunk	-8609
▁angrier	-8610
▁compete	-8611
▁checking	-8612
▁choosing	-8613
▁deserved	-8614
▁playdate	-8615
▁textures	-8616
▁wriggled	-8617
▁kangaroos	-8618
bl	-8619
Got	-8620
sse	-8621
▁CD	-8622
Bear	-8623
▁Old	-8624
mbers	-8625
plash	-8626
▁Ever	-8627
▁Find	-8628
▁Sand	-8629
▁Tick	-8630
screen	-8631
▁Peggy	-8632
▁Ratty	-8633
▁Rufus	-8634
▁Sugar	-8635
▁hover	-8636
▁inter	-8637
▁overw	-8638
▁troll	-8639
Nothing	-8640
cidents	-8641
ouraged	-8642
▁Carrie	-8643
▁boards	-8644
▁tablet	-8645
▁farmers	-8646
▁ketchup	-8647
▁members	-8648
▁swaying	-8649
▁attacked	-8650
▁lunchtime	-8651
▁sunscreen	-8652
▁situations	-8653
amma	-8654
▁ass	-8655
esses	-8656
mered	-8657
venir	-8658
▁Race	-8659
▁surv	-8660
idence	-8661
▁Helen	-8662
▁Surpr	-8663
▁horri	-8664
▁unless	-8665
▁waters	-8666
▁breaths	-8667
▁mattered	-8668
▁noticing	-8669
▁numbered	-8670
▁souvenir	-8671
▁Excitedly	-8672
▁instantly	-8673
▁transform	-8674
▁magnifying	-8675
▁accomplished	-8676
yl	-8677
Car	-8678
Fire	-8679
ayla	-8680
othy	-8681
rick	-8682
rnie	-8683
iolet	-8684
▁Coal	-8685
▁Lung	-8686
▁Spin	-8687
▁date	-8688
▁poss	-8689
▁prog	-8690
▁alley	-8691
▁Woolly	-8692
▁weaker	-8693
▁meowing	-8694
▁repeats	-8695
▁tapping	-8696
▁consider	-8697
▁sprinkle	-8698
▁answering	-8699
▁swimsuits	-8700
▁disagreeing	-8701
▁granddaughter	-8702
”,	-8703
Sun	-8704
net	-8705
ths	-8706
▁Cr	-8707
munk	-8708
ulars	-8709
▁Flap	-8710
▁Greg	-8711
▁Very	-8712
▁hood	-8713
▁ting	-8714
▁Gilly	-8715
▁Smoke	-8716
▁Thing	-8717
▁Tooth	-8718
▁exams	-8719
▁sculp	-8720
▁miller	-8721
▁shrugs	-8722
▁thumbs	-8723
▁Captain	-8724
▁Monster	-8725
▁builder	-8726
▁concent	-8727
▁mailing	-8728
▁trading	-8729
▁messages	-8730
▁overwhel	-8731
▁sculpture	-8732
▁binoculars	-8733
OO	-8734
da	-8735
hole	-8736
idey	-8737
oard	-8738
▁Fay	-8739
ragon	-8740
sorry	-8741
▁Boom	-8742
▁Glow	-8743
▁Inch	-8744
▁Jose	-8745
▁jing	-8746
▁Books	-8747
▁marve	-8748
▁Animal	-8749
▁Circle	-8750
▁Yellow	-8751
▁aboard	-8752
▁blonde	-8753
▁fooled	-8754
▁seeking	-8755
▁shallow	-8756
▁winding	-8757
▁Reliable	-8758
▁checkout	-8759
▁property	-8760
▁sometime	-8761
▁pepperoni	-8762
▁fascinating	-8763
emy	-8764
its	-8765
▁Bun	-8766
anced	-8767
rough	-8768
▁Hops	-8769
▁Mole	-8770
▁cubs	-8771
▁desc	-8772
▁papa	-8773
▁scri	-8774
icious	-8775
inging	-8776
▁Birds	-8777
▁chill	-8778
▁drift	-8779
▁enemy	-8780
▁hoses	-8781
▁unwra	-8782
▁Flopsy	-8783
▁Spinny	-8784
▁burger	-8785
▁raking	-8786
▁shoots	-8787
▁spooky	-8788
▁beating	-8789
▁blushed	-8790
▁croaked	-8791
▁hardest	-8792
▁plugged	-8793
racadabra	-8794
▁grumbled	-8795
▁whimpered	-8796
▁glimmering	-8797
▁structures	-8798
ssssssssssssssss	-8799
ai	-8800
?”.	-8801
ibo	-8802
raw	-8803
lest	-8804
snap	-8805
▁Con	-8806
acing	-8807
ssess	-8808
▁Pink	-8809
▁dock	-8810
▁suns	-8811
▁aston	-8812
▁hangs	-8813
▁Crabby	-8814
▁awhile	-8815
▁drying	-8816
▁stacks	-8817
▁stains	-8818
▁apology	-8819
▁cupcake	-8820
▁hunting	-8821
▁munched	-8822
▁possess	-8823
▁cheating	-8824
▁chipmunk	-8825
▁glittering	-8826
▁discouraged	-8827
▁disappointment	-8828
Deal	-8829
bank	-8830
sers	-8831
that	-8832
▁Bro	-8833
▁Val	-8834
▁Cars	-8835
▁JoJo	-8836
▁ding	-8837
▁fade	-8838
▁gall	-8839
▁slee	-8840
icking	-8841
racted	-8842
▁Carla	-8843
▁crops	-8844
▁meets	-8845
▁palms	-8846
▁pouch	-8847
▁judges	-8848
▁possib	-8849
▁trusts	-8850
▁hissing	-8851
▁sobbing	-8852
▁bubbling	-8853
▁kneeling	-8854
▁paddling	-8855
▁softened	-8856
▁squished	-8857
▁Accidents	-8858
▁cooperate	-8859
▁reversing	-8860
▁Immediately	-8861
cie	-8862
gar	-8863
idy	-8864
icate	-8865
orsie	-8866
urple	-8867
▁Chip	-8868
▁snar	-8869
hopper	-8870
▁Clean	-8871
▁Tears	-8872
▁flock	-8873
▁raked	-8874
▁stirs	-8875
▁Sleepy	-8876
▁Spidey	-8877
▁heaven	-8878
▁pizzas	-8879
▁fetched	-8880
▁flashes	-8881
▁meaning	-8882
▁tidying	-8883
▁reunited	-8884
▁caterpillars	-8885
eat	-8886
oot	-8887
str	-8888
▁Eat	-8889
▁baa	-8890
▁dev	-8891
▁Bibo	-8892
▁Deal	-8893
▁funn	-8894
poison	-8895
▁Cally	-8896
▁Johny	-8897
▁Paula	-8898
▁clips	-8899
▁local	-8900
▁timid	-8901
▁Jennie	-8902
▁concer	-8903
▁facing	-8904
▁wolves	-8905
▁pressing	-8906
▁seagulls	-8907
▁untangle	-8908
▁protection	-8909
ico	-8910
war	-8911
Ring	-8912
this	-8913
▁Jas	-8914
▁unz	-8915
Whose	-8916
ching	-8917
▁Hank	-8918
▁Jody	-8919
▁Lots	-8920
▁drip	-8921
▁maps	-8922
▁Dilly	-8923
▁embra	-8924
▁haven	-8925
▁mayor	-8926
▁plank	-8927
▁pleas	-8928
▁whine	-8929
colored	-8930
flowers	-8931
▁Horsie	-8932
▁stings	-8933
▁Looking	-8934
▁Patient	-8935
▁artwork	-8936
▁crushed	-8937
▁goodies	-8938
▁guesses	-8939
▁landing	-8940
▁tongues	-8941
▁doorstep	-8942
▁toppings	-8943
▁challenges	-8944
▁differences	-8945
▁grasshopper	-8946
▁overwhelmed	-8947
▁responsibility	-8948
iky	-8949
Rock	-8950
▁lim	-8951
acock	-8952
ering	-8953
▁Over	-8954
▁Tell	-8955
▁chin	-8956
▁circ	-8957
▁lump	-8958
▁swir	-8959
Freeze	-8960
▁Climb	-8961
▁skies	-8962
▁sleds	-8963
▁smelt	-8964
▁torto	-8965
cessary	-8966
▁Ginger	-8967
▁bending	-8968
▁bumping	-8969
▁details	-8970
▁drowned	-8971
▁wrapper	-8972
▁positive	-8973
▁squashes	-8974
▁gratefully	-8975
Ray	-8976
Lisa	-8977
▁Ami	-8978
▁Tra	-8979
ellie	-8980
getic	-8981
▁Beef	-8982
▁Doug	-8983
▁Faye	-8984
▁boil	-8985
▁rect	-8986
▁tale	-8987
▁Peace	-8988
▁Winky	-8989
▁carts	-8990
▁snort	-8991
▁Gracie	-8992
▁blamed	-8993
▁glared	-8994
▁muster	-8995
▁surfed	-8996
▁wrench	-8997
▁dripped	-8998
▁injured	-8999
▁snorted	-9000
▁swapped	-9001
▁Scissors	-9002
▁listener	-9003
▁luckiest	-9004
▁shortcut	-9005
▁moonlight	-9006
▁unwrapped	-9007
Rob	-9008
lor	-9009
▁Kn	-9010
▁Ms	-9011
Tiny	-9012
aste	-9013
jest	-9014
Close	-9015
▁Bell	-9016
▁Peep	-9017
istory	-9018
▁Comet	-9019
▁Ronny	-9020
▁dedic	-9021
▁pecks	-9022
▁sells	-9023
▁tunes	-9024
▁Sandra	-9025
▁Settle	-9026
▁Winter	-9027
▁sneaks	-9028
▁Melissa	-9029
▁Patrick	-9030
▁Stanley	-9031
▁crowded	-9032
▁keyhole	-9033
▁servant	-9034
▁Triangle	-9035
▁deserves	-9036
▁sniffled	-9037
▁striking	-9038
▁tortoise	-9039
▁otherwise	-9040
▁riverbank	-9041
▁successfully	-9042
OP	-9043
de	-9044
Fly	-9045
pop	-9046
ulf	-9047
Ella	-9048
Make	-9049
Momo	-9050
well	-9051
▁Bea	-9052
▁sus	-9053
anish	-9054
bling	-9055
rusty	-9056
▁Brad	-9057
▁rack	-9058
▁stun	-9059
uffled	-9060
▁Again	-9061
▁bound	-9062
▁cruel	-9063
▁niece	-9064
▁rider	-9065
▁shyly	-9066
▁tents	-9067
erately	-9068
▁amused	-9069
▁compan	-9070
▁deeply	-9071
▁formed	-9072
▁member	-9073
▁Johnson	-9074
▁Through	-9075
▁dirtier	-9076
▁halfway	-9077
▁popping	-9078
▁warmest	-9079
▁crouched	-9080
▁goodness	-9081
▁Lightning	-9082
▁passenger	-9083
▁sensation	-9084
▁shattered	-9085
▁hesitation	-9086
▁differently	-9087
sa	-9088
enn	-9089
oss	-9090
ula	-9091
bang	-9092
meow	-9093
scar	-9094
Benny	-9095
▁Girl	-9096
▁Iron	-9097
▁Kyle	-9098
▁Liam	-9099
▁Nate	-9100
▁Open	-9101
▁bund	-9102
▁fond	-9103
▁fuss	-9104
▁prod	-9105
▁rubb	-9106
▁gates	-9107
▁lamps	-9108
▁sends	-9109
adually	-9110
▁Crusty	-9111
▁Twisty	-9112
▁blades	-9113
▁Jasmine	-9114
▁arrives	-9115
▁peacock	-9116
▁tugging	-9117
▁countries	-9118
▁mysteries	-9119
bu	-9120
ets	-9121
anie	-9122
dest	-9123
▁cuc	-9124
Catch	-9125
Enjoy	-9126
guess	-9127
▁Ravi	-9128
▁Rick	-9129
▁hudd	-9130
▁priv	-9131
▁rags	-9132
▁ripp	-9133
Splash	-9134
▁Colin	-9135
▁Josie	-9136
▁Oscar	-9137
▁Sharp	-9138
▁bushy	-9139
▁gooey	-9140
▁hates	-9141
▁lever	-9142
▁spiky	-9143
▁Greeny	-9144
▁Magnet	-9145
▁centre	-9146
▁cloths	-9147
▁floaty	-9148
▁gallop	-9149
▁swirls	-9150
▁learner	-9151
▁rubbish	-9152
▁tempted	-9153
▁intently	-9154
▁mustered	-9155
▁whiskers	-9156
▁astonished	-9157
▁desperately	-9158
▁satisfaction	-9159
"!	-9160
!'.	-9161
Isn	-9162
ani	-9163
dog	-9164
saw	-9165
upt	-9166
▁''	-9167
amil	-9168
bert	-9169
▁Kel	-9170
▁Per	-9171
▁Roar	-9172
▁stew	-9173
▁unlo	-9174
endant	-9175
▁Alarm	-9176
▁heels	-9177
▁knobs	-9178
▁mushy	-9179
▁woken	-9180
keepers	-9181
▁Things	-9182
▁speaks	-9183
▁writer	-9184
▁motorcy	-9185
▁chopping	-9186
▁courageous	-9187
▁separating	-9188
▁wildflowers	-9189
▁recommendation	-9190
!'"	-9191
Hop	-9192
Use	-9193
can	-9194
▁Fa	-9195
▁Op	-9196
▁ank	-9197
▁bas	-9198
▁fif	-9199
▁god	-9200
Bless	-9201
fived	-9202
ggles	-9203
storm	-9204
usion	-9205
▁Cher	-9206
▁Rara	-9207
▁Ernie	-9208
▁croak	-9209
▁glows	-9210
▁melts	-9211
▁rinse	-9212
amiliar	-9213
▁Oxygen	-9214
▁Pinchy	-9215
▁Purple	-9216
▁Summer	-9217
▁brakes	-9218
▁calmer	-9219
▁detect	-9220
▁glided	-9221
▁halves	-9222
▁hooves	-9223
▁quacks	-9224
smelling	-9225
▁chatted	-9226
▁cracker	-9227
▁kissing	-9228
▁outfits	-9229
▁sandpit	-9230
▁scowled	-9231
Surrender	-9232
▁Otherwise	-9233
▁computers	-9234
▁healthier	-9235
▁revealing	-9236
Abracadabra	-9237
▁shimmering	-9238
▁exploration	-9239
Tr	-9240
▁Gu	-9241
Show	-9242
repe	-9243
stop	-9244
▁Hur	-9245
▁wig	-9246
Being	-9247
izzes	-9248
▁Cats	-9249
▁knit	-9250
▁plat	-9251
antern	-9252
atural	-9253
▁Carly	-9254
▁Layla	-9255
▁dives	-9256
▁Martin	-9257
▁bowing	-9258
▁chalks	-9259
▁phones	-9260
▁warmed	-9261
▁whoosh	-9262
▁Animals	-9263
▁boiling	-9264
▁caution	-9265
▁goggles	-9266
▁loyalty	-9267
▁Broccoli	-9268
▁defeated	-9269
▁wiggling	-9270
▁companion	-9271
▁conquered	-9272
▁desperate	-9273
▁realizing	-9274
▁reappeared	-9275
▁unfamiliar	-9276
▁zookeepers	-9277
▁disappearing	-9278
ts	-9279
▁”	-9280
'?"	-9281
Any	-9282
pan	-9283
uno	-9284
Rain	-9285
mate	-9286
orse	-9287
▁Icy	-9288
▁Law	-9289
solut	-9290
▁Gold	-9291
▁capt	-9292
▁fist	-9293
▁reck	-9294
repeat	-9295
uction	-9296
▁Belle	-9297
▁Brain	-9298
▁Chuck	-9299
▁Kenny	-9300
▁Nelly	-9301
▁Pebby	-9302
▁flick	-9303
▁peeks	-9304
▁robin	-9305
▁spare	-9306
▁nearer	-9307
▁nicest	-9308
▁peeped	-9309
▁chooses	-9310
▁messier	-9311
▁quizzes	-9312
▁Jonathan	-9313
▁pedaling	-9314
▁practised	-9315
▁repairing	-9316
▁unlocking	-9317
▁confidence	-9318
Two	-9319
ifer	-9320
▁mac	-9321
Found	-9322
Jenny	-9323
▁Bubu	-9324
▁Doll	-9325
▁Jere	-9326
▁Turn	-9327
▁Whee	-9328
▁hint	-9329
▁lush	-9330
▁obst	-9331
▁poop	-9332
ildren	-9333
▁Horsy	-9334
▁booth	-9335
▁capes	-9336
▁creak	-9337
▁folds	-9338
▁groom	-9339
▁honks	-9340
▁scene	-9341
Promise	-9342
working	-9343
▁Carrot	-9344
▁Rumble	-9345
▁Trucky	-9346
▁cutter	-9347
▁horror	-9348
▁oldest	-9349
▁pearls	-9350
▁burgers	-9351
▁furious	-9352
▁guitars	-9353
▁realise	-9354
▁survive	-9355
▁vinegar	-9356
▁Jennifer	-9357
▁glittery	-9358
▁reckless	-9359
▁squinted	-9360
▁fireflies	-9361
▁necessary	-9362
▁underwater	-9363
▁intelligence	-9364
Say	-9365
ded	-9366
els	-9367
ware	-9368
▁Was	-9369
▁dou	-9370
ushes	-9371
▁Puff	-9372
▁glob	-9373
▁hips	-9374
▁lava	-9375
▁Black	-9376
▁Reddy	-9377
▁Socky	-9378
▁blade	-9379
▁stalk	-9380
▁winds	-9381
Playing	-9382
▁Orange	-9383
▁commun	-9384
▁spaces	-9385
▁swayed	-9386
solutely	-9387
▁Sundays	-9388
▁buckles	-9389
▁huddled	-9390
▁Skeleton	-9391
▁disaster	-9392
▁marveled	-9393
▁platform	-9394
▁progress	-9395
▁squirted	-9396
▁uncovered	-9397
▁nightstand	-9398
▁electricity	-9399
▁motorcycles	-9400
▁persistence	-9401
Co	-9402
Bee	-9403
Owl	-9404
oma	-9405
Frog	-9406
emon	-9407
hand	-9408
kind	-9409
orky	-9410
▁Res	-9411
▁lar	-9412
▁sly	-9413
▁Leaf	-9414
▁bold	-9415
▁canv	-9416
▁clut	-9417
▁deck	-9418
▁keen	-9419
▁mold	-9420
iggles	-9421
▁Close	-9422
▁Mamma	-9423
▁Puffy	-9424
▁Robin	-9425
▁cooks	-9426
▁escap	-9427
▁mustn	-9428
▁peels	-9429
▁quilt	-9430
▁tanks	-9431
▁copied	-9432
▁hollow	-9433
▁cousins	-9434
▁leaking	-9435
▁natural	-9436
▁parrots	-9437
▁pounced	-9438
▁sweetly	-9439
▁builders	-9440
▁guardian	-9441
▁lighting	-9442
▁silently	-9443
▁Hurricane	-9444
▁borrowing	-9445
▁restoring	-9446
▁seriously	-9447
▁helicopters	-9448
▁imaginations	-9449
Im	-9450
rum	-9451
oned	-9452
▁Fun	-9453
▁Ken	-9454
▁Pee	-9455
▁tot	-9456
Bobby	-9457
chief	-9458
▁Alan	-9459
▁Fran	-9460
▁Last	-9461
▁fail	-9462
▁tant	-9463
ippers	-9464
isible	-9465
rowave	-9466
▁Bruno	-9467
▁Crane	-9468
▁March	-9469
▁Spoon	-9470
▁Worry	-9471
▁blame	-9472
▁doves	-9473
▁racer	-9474
▁winks	-9475
▁Violet	-9476
▁Wonder	-9477
▁fences	-9478
▁larger	-9479
▁payoff	-9480
▁puffed	-9481
▁racers	-9482
▁signal	-9483
▁unwrap	-9484
Tomorrow	-9485
▁Flicker	-9486
▁Officer	-9487
▁Working	-9488
▁coolest	-9489
▁hurtful	-9490
▁vibrant	-9491
▁chatting	-9492
▁joyfully	-9493
▁occasion	-9494
▁seashell	-9495
▁cherished	-9496
▁condition	-9497
▁container	-9498
▁imaginary	-9499
▁invisible	-9500
▁microwave	-9501
▁Friendship	-9502
▁Thankfully	-9503
▁dedication	-9504
Jen	-9505
ala	-9506
why	-9507
Boom	-9508
cker	-9509
lish	-9510
▁Run	-9511
▁Son	-9512
▁Zog	-9513
urity	-9514
▁Club	-9515
▁Gret	-9516
▁Soar	-9517
▁fulf	-9518
▁lull	-9519
▁rebu	-9520
▁rods	-9521
▁taps	-9522
▁Gemma	-9523
▁Giant	-9524
▁Randy	-9525
▁admit	-9526
▁ankle	-9527
▁bands	-9528
▁facts	-9529
▁Dragon	-9530
▁Jeremy	-9531
▁Nature	-9532
▁Starry	-9533
▁depths	-9534
▁marvel	-9535
▁pounds	-9536
▁flavour	-9537
▁pancake	-9538
▁routine	-9539
▁tossing	-9540
▁hundreds	-9541
▁stacking	-9542
▁stomachs	-9543
▁stretchy	-9544
▁concerned	-9545
Ahh	-9546
Eww	-9547
Red	-9548
erg	-9549
ika	-9550
▁De	-9551
Fred	-9552
like	-9553
mark	-9554
uise	-9555
▁Oxy	-9556
▁Rad	-9557
▁Smo	-9558
▁Top	-9559
Share	-9560
Sweet	-9561
apple	-9562
clock	-9563
isapp	-9564
robes	-9565
▁Burt	-9566
▁Dogs	-9567
▁buys	-9568
▁Allie	-9569
▁aloud	-9570
▁caves	-9571
▁clubs	-9572
▁globe	-9573
▁jeans	-9574
▁tours	-9575
▁Joseph	-9576
▁canvas	-9577
▁whines	-9578
▁amongst	-9579
▁charged	-9580
▁painful	-9581
▁speaker	-9582
▁tantrum	-9583
▁zippers	-9584
▁lectures	-9585
▁overhead	-9586
▁improving	-9587
▁possibilities	-9588
mie	-9589
ndy	-9590
per	-9591
Fish	-9592
Miss	-9593
ibly	-9594
just	-9595
otch	-9596
shop	-9597
▁Par	-9598
▁Sis	-9599
▁opt	-9600
cloth	-9601
osure	-9602
▁Coby	-9603
▁Mona	-9604
▁dips	-9605
▁poll	-9606
▁webs	-9607
bbling	-9608
▁Avery	-9609
▁Brave	-9610
▁Silly	-9611
▁aroma	-9612
▁creep	-9613
▁desks	-9614
▁loads	-9615
▁setup	-9616
▁slime	-9617
▁Joanna	-9618
▁Minnie	-9619
▁actors	-9620
▁dashed	-9621
▁popsic	-9622
▁wetter	-9623
▁chatter	-9624
▁lullaby	-9625
▁ticking	-9626
▁wobbles	-9627
▁holidays	-9628
▁security	-9629
▁soothing	-9630
▁rectangle	-9631
▁absolutely	-9632
▁instrument	-9633
▁transformed	-9634
rem	-9635
rin	-9636
aids	-9637
ibby	-9638
ites	-9639
izza	-9640
oria	-9641
uses	-9642
ydia	-9643
Three	-9644
▁Fore	-9645
▁Hook	-9646
▁Inky	-9647
▁Ouch	-9648
▁host	-9649
▁huff	-9650
▁inju	-9651
▁remo	-9652
▁snip	-9653
▁susp	-9654
▁weed	-9655
pecker	-9656
▁Whale	-9657
▁dryer	-9658
▁fluff	-9659
▁skips	-9660
▁Breezy	-9661
▁hippos	-9662
▁pedall	-9663
▁surely	-9664
▁strokes	-9665
▁attempts	-9666
▁confusion	-9667
▁ostriches	-9668
▁alligators	-9669
▁compromise	-9670
▁9	-9671
Bug	-9672
Ooh	-9673
Squ	-9674
ris	-9675
▁Ha	-9676
acey	-9677
iana	-9678
rent	-9679
Uncle	-9680
shirt	-9681
▁Bern	-9682
▁Half	-9683
▁Soap	-9684
▁encl	-9685
▁twel	-9686
barrow	-9687
scotch	-9688
▁Clare	-9689
▁Flash	-9690
▁Fluff	-9691
▁Music	-9692
▁Spicy	-9693
▁flyer	-9694
▁grunt	-9695
▁hairs	-9696
▁level	-9697
▁pairs	-9698
▁piled	-9699
▁royal	-9700
▁shave	-9701
▁Spider	-9702
▁blooms	-9703
▁riddle	-9704
Everyone	-9705
▁Matthew	-9706
▁Timothy	-9707
▁glanced	-9708
▁lightly	-9709
▁lizards	-9710
▁petting	-9711
▁purring	-9712
▁showers	-9713
▁softest	-9714
surrender	-9715
▁exchange	-9716
▁munching	-9717
▁community	-9718
▁enclosure	-9719
▁energetic	-9720
▁glittered	-9721
▁appearance	-9722
▁compliment	-9723
▁distracted	-9724
▁incredibly	-9725
▁wheelbarrow	-9726
!’	-9727
ka	-9728
Che	-9729
Ice	-9730
Zip	-9731
ift	-9732
ooh	-9733
▁Gw	-9734
okay	-9735
▁Ada	-9736
▁Kai	-9737
▁Pot	-9738
epeat	-9739
rings	-9740
▁Bebe	-9741
▁Didi	-9742
▁Hero	-9743
▁Leah	-9744
▁Rory	-9745
▁Sisi	-9746
▁Vict	-9747
▁bats	-9748
▁hoot	-9749
▁peak	-9750
▁soul	-9751
▁tone	-9752
▁unst	-9753
▁Bruce	-9754
▁Could	-9755
▁Goose	-9756
▁Stand	-9757
▁fixer	-9758
▁rises	-9759
▁risky	-9760
▁shaky	-9761
▁Kelsey	-9762
▁Swimmy	-9763
▁chicks	-9764
▁cutest	-9765
▁hummed	-9766
▁majest	-9767
▁praise	-9768
▁rowing	-9769
▁twelve	-9770
▁undone	-9771
▁antlers	-9772
▁circled	-9773
▁conduct	-9774
▁current	-9775
▁daddies	-9776
▁disagre	-9777
▁handleb	-9778
▁hideout	-9779
▁meadows	-9780
▁venture	-9781
▁Caroline	-9782
▁allowing	-9783
▁flippers	-9784
▁patients	-9785
▁pleasant	-9786
▁sneaking	-9787
▁tempting	-9788
▁certainly	-9789
▁disobeyed	-9790
▁mustaches	-9791
▁temptation	-9792
▁woodpecker	-9793
ram	-9794
Even	-9795
Toys	-9796
icia	-9797
▁Tay	-9798
Ducky	-9799
▁Drop	-9800
▁Lady	-9801
▁Read	-9802
▁Roxy	-9803
iciest	-9804
iously	-9805
▁Lydia	-9806
▁Rusty	-9807
▁Steal	-9808
▁Which	-9809
▁chili	-9810
▁dozed	-9811
goodbye	-9812
stantly	-9813
▁Alison	-9814
▁Billie	-9815
▁Joanne	-9816
▁chains	-9817
▁inform	-9818
▁collars	-9819
▁harmony	-9820
▁heights	-9821
▁sinking	-9822
▁cuddling	-9823
▁ordering	-9824
▁workshop	-9825
▁bathrobes	-9826
▁conductor	-9827
▁panicking	-9828
Mar	-9829
afe	-9830
utt	-9831
▁Lu	-9832
Mary	-9833
ders	-9834
rina	-9835
▁Box	-9836
▁Gia	-9837
▁Whe	-9838
Sleep	-9839
ierce	-9840
illas	-9841
▁Care	-9842
▁Land	-9843
▁Pass	-9844
▁dumb	-9845
▁jigg	-9846
▁soda	-9847
▁tilt	-9848
▁whir	-9849
asured	-9850
▁Johnn	-9851
▁Robot	-9852
▁Trees	-9853
▁aback	-9854
▁droop	-9855
▁runny	-9856
▁shots	-9857
rateful	-9858
uttered	-9859
▁Marley	-9860
▁Square	-9861
▁access	-9862
▁aisles	-9863
▁giants	-9864
▁melody	-9865
▁pantry	-9866
▁squawk	-9867
▁Dancing	-9868
▁endings	-9869
▁sweeter	-9870
▁Sunshine	-9871
▁Tuesdays	-9872
▁earrings	-9873
▁heaviest	-9874
▁suggests	-9875
▁tickling	-9876
▁gradually	-9877
▁preschool	-9878
▁completing	-9879
▁continuing	-9880
.’	-9881
EE	-9882
RA	-9883
urr	-9884
Snow	-9885
atre	-9886
▁Pir	-9887
▁Yum	-9888
▁hob	-9889
ossom	-9890
▁Cake	-9891
▁Dull	-9892
▁Gwen	-9893
▁Wake	-9894
▁bolt	-9895
▁conv	-9896
ically	-9897
▁Cocoa	-9898
▁Funny	-9899
▁Libby	-9900
▁Mumma	-9901
▁Petey	-9902
▁bendy	-9903
▁combs	-9904
▁Father	-9905
▁cooled	-9906
▁dumped	-9907
▁enjoys	-9908
▁floppy	-9909
▁medium	-9910
▁unkind	-9911
▁wicked	-9912
▁Respect	-9913
▁cherish	-9914
▁explode	-9915
▁hatched	-9916
▁nations	-9917
▁pistols	-9918
▁process	-9919
▁rebuild	-9920
▁recipes	-9921
▁scenery	-9922
▁theatre	-9923
▁trailer	-9924
▁disguise	-9925
▁entering	-9926
▁gorillas	-9927
▁squawked	-9928
▁cupboards	-9929
▁musicians	-9930
▁splitting	-9931
▁treasured	-9932
▁communicate	-9933
NG	-9934
Sw	-9935
esy	-9936
eze	-9937
lyn	-9938
olo	-9939
woo	-9940
▁"3	-9941
▁2,	-9942
Lulu	-9943
enna	-9944
meal	-9945
mers	-9946
▁Mop	-9947
▁Ped	-9948
▁pea	-9949
arted	-9950
atest	-9951
guard	-9952
horse	-9953
ously	-9954
▁Dora	-9955
▁Gert	-9956
▁Isla	-9957
▁Mild	-9958
▁hoof	-9959
▁trim	-9960
friend	-9961
iraffe	-9962
▁Bessy	-9963
▁Shake	-9964
▁Using	-9965
▁ashes	-9966
▁mixes	-9967
▁rocky	-9968
▁route	-9969
▁Button	-9970
▁Eating	-9971
▁Though	-9972
▁fading	-9973
▁juggle	-9974
▁limped	-9975
▁offers	-9976
▁throne	-9977
▁values	-9978
grateful	-9979
▁folders	-9980
▁snoring	-9981
▁villain	-9982
▁Cleaning	-9983
▁convince	-9984
▁crickets	-9985
▁headache	-9986
▁hovering	-9987
▁lovingly	-9988
▁movement	-9989
▁competing	-9990
▁scrunched	-9991
▁experiment	-9992
▁mesmerised	-9993
▁Thermometer	-9994
▁clothesline	-9995
▁considerate	-9996
▁frightening	-9997
BC	-9998
HE	-9999
Caw	-10000
Wee	-10001
asy	-10002
bur	-10003
idi	-10004
▁La	-10005
imbo	-10006
inct	-10007
itam	-10008
oors	-10009
oris	-10010
rays	-10011
ryst	-10012
▁Bar	-10013
▁Del	-10014
▁lil	-10015
aming	-10016
insed	-10017
ooked	-10018
▁Down	-10019
▁Ugly	-10020
▁army	-10021
ceeded	-10022
▁Ellen	-10023
▁Jodie	-10024
▁cluck	-10025
▁cooed	-10026
▁roofs	-10027
▁salon	-10028
▁warns	-10029
▁allerg	-10030
▁bleeds	-10031
▁defeat	-10032
▁guided	-10033
▁lasers	-10034
▁narrow	-10035
▁rinsed	-10036
▁roamed	-10037
▁slight	-10038
▁Brother	-10039
▁avoided	-10040
▁banging	-10041
▁calming	-10042
▁harvest	-10043
▁heavily	-10044
▁indoors	-10045
▁snarled	-10046
▁witches	-10047
Something	-10048
▁Stealing	-10049
▁stomping	-10050
▁alongside	-10051
▁disappears	-10052
Bo	-10053
ann	-10054
ics	-10055
▁Af	-10056
▁da	-10057
Aunt	-10058
fant	-10059
ispy	-10060
▁ABC	-10061
▁sax	-10062
▁tul	-10063
Rever	-10064
owers	-10065
▁Kara	-10066
▁Mail	-10067
▁Meow	-10068
▁Park	-10069
▁Purr	-10070
▁laws	-10071
▁scal	-10072
people	-10073
rystal	-10074
▁Cream	-10075
▁Jimbo	-10076
▁blend	-10077
▁daily	-10078
▁drill	-10079
▁gruff	-10080
▁prank	-10081
▁tales	-10082
▁vitam	-10083
▁School	-10084
▁Taylor	-10085
▁boiled	-10086
▁cables	-10087
▁chirps	-10088
▁crafts	-10089
▁devast	-10090
▁lilies	-10091
▁recess	-10092
▁widely	-10093
▁Feather	-10094
▁Johnnie	-10095
▁Neither	-10096
▁oatmeal	-10097
▁pecking	-10098
▁wiggles	-10099
▁hopeless	-10100
▁horrible	-10101
▁strolled	-10102
▁airplanes	-10103
▁challenged	-10104
▁disagreement	-10105
Sm	-10106
vo	-10107
'!"	-10108
she	-10109
▁--	-10110
Push	-10111
Snap	-10112
belt	-10113
▁Mac	-10114
▁Roy	-10115
▁inn	-10116
▁len	-10117
flies	-10118
isher	-10119
▁Mick	-10120
▁Noah	-10121
▁Rosy	-10122
▁blob	-10123
▁pail	-10124
▁sunb	-10125
▁Drink	-10126
▁Fizzy	-10127
▁Guard	-10128
▁Matty	-10129
▁Nicky	-10130
▁Print	-10131
▁farms	-10132
▁mooed	-10133
▁parks	-10134
▁ruled	-10135
▁tucks	-10136
▁waded	-10137
▁wands	-10138
Imagine	-10139
Reverse	-10140
▁Bernie	-10141
▁Number	-10142
▁bundle	-10143
▁lasted	-10144
▁leaped	-10145
▁sleeve	-10146
▁trunks	-10147
▁capture	-10148
▁lantern	-10149
▁million	-10150
▁motions	-10151
▁rumbled	-10152
▁science	-10153
▁shields	-10154
▁shrimps	-10155
▁greatest	-10156
▁missiles	-10157
▁raindrop	-10158
▁Crocodile	-10159
▁magically	-10160
▁ungrateful	-10161
As	-10162
ige	-10163
nna	-10164
▁"1	-10165
▁3,	-10166
▁Pep	-10167
▁Sid	-10168
▁mur	-10169
▁ray	-10170
ality	-10171
gging	-10172
ridge	-10173
▁Cell	-10174
▁Claw	-10175
▁Clay	-10176
▁clim	-10177
▁code	-10178
▁slot	-10179
▁summ	-10180
arning	-10181
▁Chomp	-10182
▁Doing	-10183
▁Dusty	-10184
▁blush	-10185
▁chewy	-10186
▁innoc	-10187
▁wanna	-10188
▁Cherry	-10189
▁Nathan	-10190
▁elders	-10191
▁kneels	-10192
▁limits	-10193
▁nudged	-10194
▁raises	-10195
▁rotted	-10196
▁beeping	-10197
▁dodging	-10198
▁flooded	-10199
▁somehow	-10200
▁steered	-10201
▁whether	-10202
▁seatbelt	-10203
▁Surprised	-10204
▁lifeguard	-10205
▁proceeded	-10206
▁raincoats	-10207
▁saxophone	-10208
▁sleepover	-10209
▁tentacles	-10210
▁devastated	-10211
▁handlebars	-10212
▁suspicious	-10213
▁information	-10214
▁surrounding	-10215
ongratulations	-10216
SH	-10217
ok	-10218
Cle	-10219
aps	-10220
haw	-10221
umn	-10222
▁Wr	-10223
Buzz	-10224
From	-10225
Move	-10226
Poor	-10227
ical	-10228
reet	-10229
reya	-10230
thur	-10231
▁Eve	-10232
▁Jes	-10233
▁Ned	-10234
▁Pol	-10235
▁Rud	-10236
▁une	-10237
Jerry	-10238
hadow	-10239
isbee	-10240
omise	-10241
oured	-10242
▁Choo	-10243
▁Kind	-10244
▁Mara	-10245
▁Susy	-10246
▁Tube	-10247
▁pace	-10248
▁pref	-10249
inting	-10250
rupted	-10251
sitter	-10252
ubbing	-10253
▁Claus	-10254
▁Croco	-10255
▁Faith	-10256
▁Freya	-10257
▁Grump	-10258
▁Shine	-10259
▁Three	-10260
▁aband	-10261
▁grump	-10262
▁misty	-10263
▁nanny	-10264
▁petal	-10265
immered	-10266
▁Arthur	-10267
▁Flower	-10268
▁Winnie	-10269
▁baller	-10270
▁dining	-10271
▁events	-10272
▁grandk	-10273
▁hunger	-10274
▁proved	-10275
▁seated	-10276
Children	-10277
▁antenna	-10278
▁command	-10279
▁dustpan	-10280
▁whipped	-10281
▁allergic	-10282
▁concentr	-10283
▁porridge	-10284
▁seahorse	-10285
▁settling	-10286
▁smoothly	-10287
▁Instantly	-10288
▁eyeshadow	-10289
▁occasions	-10290
▁solutions	-10291
▁supplying	-10292
▁volcanoes	-10293
▁achievement	-10294
Aw	-10295
con	-10296
cra	-10297
nor	-10298
oos	-10299
▁Ce	-10300
▁Ly	-10301
Hoor	-10302
boom	-10303
kest	-10304
rice	-10305
umed	-10306
▁Bel	-10307
▁Boy	-10308
▁Oak	-10309
▁THE	-10310
▁Wor	-10311
▁gul	-10312
▁hey	-10313
▁plo	-10314
▁vol	-10315
acher	-10316
asper	-10317
eller	-10318
inema	-10319
owing	-10320
▁Pear	-10321
▁silk	-10322
Doctor	-10323
Hooray	-10324
orious	-10325
▁Alfie	-10326
▁Apple	-10327
▁Carol	-10328
▁Diana	-10329
▁Juice	-10330
▁Novel	-10331
▁Ostri	-10332
▁Pedro	-10333
▁cords	-10334
▁handy	-10335
▁lumpy	-10336
▁scree	-10337
▁smoky	-10338
▁Bubble	-10339
▁Infant	-10340
▁Should	-10341
▁cinema	-10342
▁gulped	-10343
▁roller	-10344
▁rustle	-10345
▁Reading	-10346
▁arrange	-10347
▁combing	-10348
▁hamster	-10349
▁handles	-10350
▁turkeys	-10351
▁wrinkly	-10352
▁clothing	-10353
▁magnific	-10354
▁pounding	-10355
▁reappear	-10356
▁scratchy	-10357
▁tingling	-10358
▁character	-10359
▁organised	-10360
▁babysitter	-10361
▁confidently	-10362
Cow	-10363
che	-10364
gre	-10365
inn	-10366
▁Di	-10367
▁py	-10368
Free	-10369
King	-10370
comb	-10371
ixie	-10372
lock	-10373
▁Fit	-10374
▁Uni	-10375
▁cha	-10376
▁lun	-10377
aisie	-10378
▁Bean	-10379
▁Sail	-10380
▁Toni	-10381
▁Work	-10382
▁Worm	-10383
▁begs	-10384
▁calf	-10385
▁yuck	-10386
ashion	-10387
colate	-10388
ential	-10389
▁Afric	-10390
▁Greta	-10391
▁Heidi	-10392
▁Manny	-10393
▁Teach	-10394
▁fixes	-10395
▁lakes	-10396
▁lonel	-10397
▁loser	-10398
▁perse	-10399
▁poles	-10400
▁props	-10401
▁tippy	-10402
▁Bailey	-10403
▁Fierce	-10404
▁Pastel	-10405
▁Wilbur	-10406
▁Willow	-10407
▁cheesy	-10408
▁cooper	-10409
▁dialed	-10410
▁pollen	-10411
▁sleigh	-10412
▁squirt	-10413
▁trusty	-10414
▁twirls	-10415
▁urging	-10416
▁Promise	-10417
▁Singing	-10418
▁Sitting	-10419
▁charity	-10420
▁climber	-10421
▁fitting	-10422
▁glisten	-10423
▁section	-10424
▁studies	-10425
▁Climbing	-10426
▁compared	-10427
▁coughing	-10428
▁delaying	-10429
▁instinct	-10430
▁knitting	-10431
▁mischief	-10432
▁birthdays	-10433
▁chattered	-10434
▁honeycomb	-10435
▁contentment	-10436
▁townspeople	-10437
▁foreshadowed	-10438
▁thunderstorm	-10439
Wo	-10440
Jim	-10441
iko	-10442
▁Vo	-10443
Duck	-10444
Slow	-10445
cies	-10446
olph	-10447
oyal	-10448
▁Hat	-10449
▁lur	-10450
▁roo	-10451
Birdy	-10452
udrey	-10453
upted	-10454
▁Sean	-10455
▁blur	-10456
▁clin	-10457
▁hike	-10458
▁jaws	-10459
▁mend	-10460
▁pads	-10461
▁scre	-10462
People	-10463
▁Doggo	-10464
▁Raven	-10465
▁Think	-10466
▁dodge	-10467
▁dries	-10468
▁invol	-10469
▁scutt	-10470
▁vases	-10471
▁Albert	-10472
▁Maisie	-10473
▁Pirate	-10474
▁bruise	-10475
▁carton	-10476
▁prefer	-10477
▁skinny	-10478
▁spoken	-10479
▁Shampoo	-10480
▁crosses	-10481
▁erupted	-10482
▁rhythms	-10483
▁tiptoes	-10484
▁Confused	-10485
▁arrested	-10486
▁projects	-10487
▁scolding	-10488
▁twitched	-10489
▁ballerina	-10490
▁contained	-10491
▁repairman	-10492
▁respecting	-10493
▁emergencies	-10494
▁introducing	-10495
▁magnificent	-10496
▁possessions	-10497
Sc	-10498
ki	-10499
ami	-10500
bby	-10501
cip	-10502
ior	-10503
cell	-10504
issy	-10505
open	-10506
orth	-10507
rope	-10508
▁Toy	-10509
▁cig	-10510
▁dia	-10511
▁ris	-10512
Poppy	-10513
Right	-10514
arett	-10515
cipal	-10516
enses	-10517
ighty	-10518
illie	-10519
iring	-10520
value	-10521
▁Hunt	-10522
▁Rani	-10523
▁Tidy	-10524
▁damp	-10525
▁dong	-10526
▁leng	-10527
▁loos	-10528
▁rink	-10529
▁stur	-10530
Rabbit	-10531
areful	-10532
ession	-10533
ressed	-10534
umbers	-10535
▁Angie	-10536
▁Furry	-10537
▁Marty	-10538
▁Wilma	-10539
▁Years	-10540
▁acrob	-10541
▁curve	-10542
▁purch	-10543
▁salsa	-10544
▁sinks	-10545
▁soggy	-10546
believe	-10547
ocolate	-10548
parable	-10549
▁Audrey	-10550
▁clocks	-10551
▁dodges	-10552
▁gladly	-10553
▁spades	-10554
▁stares	-10555
▁unfold	-10556
▁untang	-10557
ustrated	-10558
▁Popcorn	-10559
▁Rudolph	-10560
▁lawyers	-10561
▁panting	-10562
▁records	-10563
▁ripples	-10564
▁snowing	-10565
▁sparrow	-10566
▁springs	-10567
▁strikes	-10568
▁deciding	-10569
▁funniest	-10570
▁protects	-10571
▁stroller	-10572
▁trumpets	-10573
▁pineapple	-10574
▁inseparable	-10575
tw	-10576
?,"	-10577
Bow	-10578
gra	-10579
ino	-10580
rop	-10581
Five	-10582
alia	-10583
anky	-10584
arla	-10585
flow	-10586
iara	-10587
talk	-10588
▁Ask	-10589
▁Gen	-10590
▁Nat	-10591
▁wee	-10592
▁yay	-10593
aroni	-10594
eness	-10595
ships	-10596
▁Comp	-10597
▁Joel	-10598
▁Mind	-10599
▁Tuck	-10600
▁atop	-10601
▁dizz	-10602
▁howl	-10603
▁ogre	-10604
opards	-10605
remely	-10606
▁Boris	-10607
▁Hairy	-10608
▁Jemma	-10609
▁Jules	-10610
▁begun	-10611
▁chaos	-10612
▁shame	-10613
▁slurp	-10614
▁strap	-10615
▁Africa	-10616
▁Justin	-10617
▁Shiver	-10618
▁device	-10619
▁explan	-10620
▁frames	-10621
▁owning	-10622
▁photog	-10623
▁walkie	-10624
▁Patches	-10625
▁ladders	-10626
▁lookout	-10627
▁nuzzles	-10628
▁quicker	-10629
▁stained	-10630
▁trudged	-10631
▁whining	-10632
▁Anything	-10633
▁Graceful	-10634
▁cigarett	-10635
▁presence	-10636
▁removing	-10637
▁requests	-10638
▁scribble	-10639
▁squirmed	-10640
▁tastiest	-10641
▁abandoned	-10642
▁fishermen	-10643
▁gardening	-10644
▁grandkids	-10645
▁hopscotch	-10646
▁principal	-10647
▁scrubbing	-10648
▁sweetness	-10649
▁tightrope	-10650
▁Frustrated	-10651
▁loneliness	-10652
▁accessories	-10653
▁foreshadowing	-10654
?!	-10655
wh	-10656
lie	-10657
ppa	-10658
▁20	-10659
Four	-10660
ggie	-10661
iddy	-10662
▁Cal	-10663
▁Col	-10664
▁Mud	-10665
▁gle	-10666
Clean	-10667
Drink	-10668
Match	-10669
Sammy	-10670
▁Jade	-10671
▁Milk	-10672
▁bins	-10673
▁mitt	-10674
▁oars	-10675
▁vacu	-10676
icated	-10677
shrink	-10678
▁Flame	-10679
▁Hilda	-10680
▁Kathy	-10681
▁Lemon	-10682
▁Panda	-10683
▁curls	-10684
▁deeds	-10685
▁grain	-10686
▁greed	-10687
▁mound	-10688
▁roast	-10689
▁speck	-10690
▁urges	-10691
▁yelps	-10692
Twinkle	-10693
▁Potato	-10694
▁fairly	-10695
▁forced	-10696
▁motors	-10697
▁oceans	-10698
▁online	-10699
▁salads	-10700
▁disobed	-10701
▁outcome	-10702
▁plopped	-10703
▁smoking	-10704
▁unlocks	-10705
▁winking	-10706
▁announce	-10707
▁overflow	-10708
▁slightly	-10709
▁smoother	-10710
▁softness	-10711
▁training	-10712
▁tumbling	-10713
▁Carefully	-10714
▁anxiously	-10715
▁contented	-10716
▁sniffling	-10717
▁snowflake	-10718
▁streaming	-10719
▁brightened	-10720
▁glistening	-10721
▁tablecloth	-10722
▁embarrassing	-10723
mo	-10724
!”,	-10725
Sit	-10726
car	-10727
▁12	-10728
More	-10729
Pass	-10730
Pipp	-10731
book	-10732
cony	-10733
rimp	-10734
uren	-10735
▁10.	-10736
▁Hot	-10737
▁Oat	-10738
▁bob	-10739
▁sim	-10740
▁unc	-10741
andel	-10742
jamin	-10743
▁Cass	-10744
▁Flea	-10745
▁Marg	-10746
▁Oink	-10747
▁Sale	-10748
▁hare	-10749
▁heed	-10750
▁radi	-10751
▁rais	-10752
Butter	-10753
ivated	-10754
market	-10755
▁Bossy	-10756
▁Steph	-10757
▁Youth	-10758
▁bangs	-10759
▁cacti	-10760
▁destr	-10761
▁halls	-10762
▁scaly	-10763
▁snore	-10764
▁unzip	-10765
irework	-10766
▁Edward	-10767
▁Gertie	-10768
▁Sister	-10769
▁birdie	-10770
▁chests	-10771
▁imagin	-10772
▁length	-10773
▁lowers	-10774
▁prison	-10775
▁stripe	-10776
▁unlike	-10777
▁Cookies	-10778
▁Halfway	-10779
▁Ostrich	-10780
▁balcony	-10781
▁begging	-10782
▁kindest	-10783
▁runners	-10784
▁stunned	-10785
▁totally	-10786
▁Benjamin	-10787
▁agreeing	-10788
▁carefree	-10789
▁distract	-10790
▁galloped	-10791
▁macaroni	-10792
▁motioned	-10793
▁unicorns	-10794
▁vitamins	-10795
▁accepting	-10796
▁detective	-10797
▁extremely	-10798
▁invention	-10799
▁promising	-10800
▁challenging	-10801
▁interrupted	-10802
▁supermarket	-10803
?’	-10804
Te	-10805
ae	-10806
uts	-10807
wee	-10808
▁Av	-10809
▁gn	-10810
Tina	-10811
Zero	-10812
away	-10813
mail	-10814
than	-10815
tick	-10816
umph	-10817
▁Wal	-10818
ender	-10819
unior	-10820
yield	-10821
▁Ding	-10822
▁Long	-10823
▁Melt	-10824
▁None	-10825
▁Sack	-10826
▁Sock	-10827
▁Tiki	-10828
▁ages	-10829
▁sizz	-10830
flower	-10831
▁Alexa	-10832
▁Ethan	-10833
▁Glass	-10834
▁Leafy	-10835
▁Loyal	-10836
▁Trina	-10837
▁carve	-10838
▁champ	-10839
▁dares	-10840
▁energ	-10841
▁fully	-10842
▁whisk	-10843
unities	-10844
▁Alicia	-10845
▁Chippy	-10846
▁Hanger	-10847
▁flakes	-10848
▁flowed	-10849
▁jogger	-10850
▁priest	-10851
▁snails	-10852
▁Annabel	-10853
▁Believe	-10854
▁Crystal	-10855
▁crashes	-10856
▁embrace	-10857
▁frisbee	-10858
▁guarded	-10859
▁islands	-10860
▁notices	-10861
▁privacy	-10862
▁rooster	-10863
▁spirits	-10864
▁thinner	-10865
▁timidly	-10866
▁valuing	-10867
▁contents	-10868
▁fiercely	-10869
▁majestic	-10870
▁purchase	-10871
▁shuffled	-10872
Everything	-10873
▁commotion	-10874
▁exchanged	-10875
▁forgetful	-10876
▁mailboxes	-10877
▁seashells	-10878
▁stretcher	-10879
▁grandchildren	-10880
▁opportunities	-10881
VD	-10882
ya	-10883
new	-10884
▁Sa	-10885
Sque	-10886
Tell	-10887
etty	-10888
ilst	-10889
jack	-10890
▁DVD	-10891
▁Int	-10892
▁Sly	-10893
▁War	-10894
▁adv	-10895
▁aid	-10896
▁wax	-10897
abeth	-10898
pilot	-10899
▁ABCs	-10900
▁Char	-10901
▁Cody	-10902
▁Sami	-10903
▁envy	-10904
▁fare	-10905
▁mops	-10906
▁plus	-10907
▁prof	-10908
▁undo	-10909
▁viol	-10910
ibbles	-10911
iments	-10912
llowed	-10913
ousand	-10914
▁Chalk	-10915
▁Dream	-10916
▁Minty	-10917
▁Opera	-10918
▁Radio	-10919
▁Stacy	-10920
▁banks	-10921
▁bould	-10922
▁layer	-10923
▁skate	-10924
▁solid	-10925
▁whizz	-10926
▁Alfred	-10927
▁Mollie	-10928
▁Nellie	-10929
▁Zoomie	-10930
▁assist	-10931
▁cranky	-10932
▁creepy	-10933
▁crispy	-10934
▁freely	-10935
▁jingle	-10936
▁outing	-10937
▁snatch	-10938
▁sturdy	-10939
▁wrists	-10940
▁Giraffe	-10941
▁Leopard	-10942
▁anybody	-10943
▁boarded	-10944
▁lurking	-10945
▁streams	-10946
▁Flexible	-10947
▁addition	-10948
▁biscuits	-10949
▁hungrier	-10950
▁juiciest	-10951
▁ladybugs	-10952
▁licenses	-10953
▁sickness	-10954
▁instincts	-10955
▁obediently	-10956
▁reassuring	-10957
▁explanation	-10958
▁fashionable	-10959
Bu	-10960
Cra	-10961
Pop	-10962
Ten	-10963
Whe	-10964
ada	-10965
lic	-10966
now	-10967
vey	-10968
▁Oy	-10969
Coco	-10970
True	-10971
▁Doc	-10972
▁Rup	-10973
elace	-10974
hibit	-10975
illow	-10976
ousel	-10977
▁Bull	-10978
▁Cube	-10979
▁Erin	-10980
▁Heel	-10981
▁Hugs	-10982
▁Mika	-10983
▁Rina	-10984
▁Rush	-10985
▁Stri	-10986
▁Swim	-10987
▁Wind	-10988
▁carn	-10989
▁fanc	-10990
▁ratt	-10991
▁tink	-10992
Beware	-10993
filled	-10994
giving	-10995
ulture	-10996
▁Becca	-10997
▁Forky	-10998
▁Onion	-10999
▁Pearl	-11000
▁appet	-11001
▁elder	-11002
▁equal	-11003
▁grasp	-11004
▁honor	-11005
▁lobby	-11006
Anytime	-11007
Careful	-11008
ooshing	-11009
▁Danger	-11010
▁Lauren	-11011
▁Rupert	-11012
▁auntie	-11013
▁carved	-11014
▁dandel	-11015
▁erased	-11016
▁fourth	-11017
▁scrape	-11018
▁shaken	-11019
▁speeds	-11020
▁tickly	-11021
▁unload	-11022
Squirrel	-11023
▁bounded	-11024
▁concert	-11025
▁crooked	-11026
▁cutters	-11027
▁greater	-11028
▁acrobats	-11029
▁carousel	-11030
▁homeless	-11031
▁leopards	-11032
▁popsicle	-11033
▁rightful	-11034
▁shoelace	-11035
▁steaming	-11036
▁thousand	-11037
▁wrappers	-11038
▁Elizabeth	-11039
▁disgusted	-11040
▁journeyed	-11041
▁discussion	-11042
▁preventing	-11043
▁flashlights	-11044
:"	-11045
ks	-11046
Mon	-11047
emo	-11048
nes	-11049
vie	-11050
Jazz	-11051
Mind	-11052
aret	-11053
boos	-11054
eras	-11055
laud	-11056
▁Gor	-11057
▁Tap	-11058
▁Ter	-11059
▁Wow	-11060
▁awa	-11061
Polly	-11062
Yield	-11063
aries	-11064
ource	-11065
stack	-11066
▁Beak	-11067
▁Kang	-11068
▁Real	-11069
▁Rhin	-11070
▁Rude	-11071
▁Seat	-11072
▁bled	-11073
▁gulp	-11074
▁kill	-11075
Choose	-11076
Mother	-11077
Repeat	-11078
oxygen	-11079
▁Beary	-11080
▁Donna	-11081
▁Peppa	-11082
▁Shall	-11083
▁Stick	-11084
▁Value	-11085
▁brats	-11086
▁cocon	-11087
▁reins	-11088
▁stump	-11089
cellent	-11090
▁Coffee	-11091
▁Hunter	-11092
▁Samuel	-11093
▁belief	-11094
▁descri	-11095
▁drople	-11096
▁feeder	-11097
▁huffed	-11098
▁itches	-11099
▁pounce	-11100
▁rattle	-11101
▁richer	-11102
▁snowed	-11103
▁speedy	-11104
▁stinky	-11105
▁sucked	-11106
▁Ashtray	-11107
▁Nibbles	-11108
▁boulder	-11109
▁compare	-11110
▁musical	-11111
▁passion	-11112
▁pinches	-11113
▁pitcher	-11114
▁praises	-11115
▁reddest	-11116
▁service	-11117
▁subject	-11118
▁swirled	-11119
▁triumph	-11120
▁useless	-11121
▁valleys	-11122
▁Margaret	-11123
▁carnival	-11124
▁clutched	-11125
▁innocent	-11126
▁meetings	-11127
▁persever	-11128
▁refusing	-11129
▁resource	-11130
▁tripping	-11131
▁obstacles	-11132
▁overnight	-11133
▁regularly	-11134
▁untangled	-11135
▁performers	-11136
▁threatened	-11137
▁adventurers	-11138
▁complicated	-11139
▁destruction	-11140
bi	-11141
▁(	-11142
EEP	-11143
Sus	-11144
ett	-11145
ils	-11146
mon	-11147
▁91	-11148
Andy	-11149
Pick	-11150
Turn	-11151
ancy	-11152
girl	-11153
ilar	-11154
love	-11155
ooke	-11156
rain	-11157
ylan	-11158
▁Rag	-11159
▁Reg	-11160
▁Rhy	-11161
▁Sab	-11162
▁div	-11163
▁woo	-11164
Peter	-11165
ailed	-11166
geous	-11167
nings	-11168
▁Abbi	-11169
▁Bugs	-11170
▁Chee	-11171
▁Cozy	-11172
▁Isab	-11173
▁Much	-11174
▁budd	-11175
▁sips	-11176
▁swat	-11177
Pippin	-11178
onight	-11179
stupid	-11180
uccess	-11181
▁Dylan	-11182
▁Fanny	-11183
▁Kanga	-11184
▁Lacey	-11185
▁Melty	-11186
▁Micro	-11187
▁Prune	-11188
▁Round	-11189
▁Sissy	-11190
▁braid	-11191
▁chann	-11192
▁erupt	-11193
▁fists	-11194
▁gloom	-11195
▁outer	-11196
▁persu	-11197
▁stiff	-11198
▁yawns	-11199
chanted	-11200
hearted	-11201
▁Brooke	-11202
▁Melody	-11203
▁Sharky	-11204
▁Tomato	-11205
▁Trusty	-11206
▁adjust	-11207
▁begins	-11208
▁darted	-11209
▁elbows	-11210
▁excuse	-11211
▁loosen	-11212
▁report	-11213
▁Biscuit	-11214
▁Chickie	-11215
▁Melanie	-11216
▁buddies	-11217
▁cabbage	-11218
▁capable	-11219
▁clucked	-11220
▁harmful	-11221
▁pendant	-11222
▁product	-11223
▁reality	-11224
▁scrunch	-11225
▁Isabella	-11226
▁champion	-11227
▁cucumber	-11228
▁designer	-11229
▁gorgeous	-11230
▁managing	-11231
▁snuggles	-11232
▁swirling	-11233
▁warriors	-11234
▁wasteful	-11235
▁descended	-11236
▁godmother	-11237
▁notebooks	-11238
▁protector	-11239
▁teaspoons	-11240
▁Surprising	-11241
▁protective	-11242
▁concentrate	-11243
▁cauliflowers	-11244
▁peacefulness	-11245
!,"	-11246
Her	-11247
Spe	-11248
lap	-11249
▁En	-11250
▁ni	-11251
Cool	-11252
RASH	-11253
aron	-11254
atic	-11255
auce	-11256
exit	-11257
give	-11258
mony	-11259
phew	-11260
pill	-11261
wine	-11262
▁911	-11263
▁Ban	-11264
▁Nia	-11265
▁Stu	-11266
▁var	-11267
actus	-11268
igher	-11269
spass	-11270
uliar	-11271
▁Bees	-11272
▁Cate	-11273
▁Dawn	-11274
▁Gaby	-11275
▁Indy	-11276
▁Wood	-11277
▁doub	-11278
▁lens	-11279
▁mums	-11280
▁wond	-11281
talkie	-11282
▁Cater	-11283
▁Fruit	-11284
▁Harri	-11285
▁Paige	-11286
▁Small	-11287
▁basil	-11288
▁boast	-11289
▁goods	-11290
▁smash	-11291
▁tilts	-11292
▁yards	-11293
▁Carlos	-11294
▁Honest	-11295
▁Kaylee	-11296
▁constr	-11297
▁heated	-11298
▁launch	-11299
▁lunged	-11300
▁mashed	-11301
▁nephew	-11302
isappear	-11303
▁Imagine	-11304
▁Squeeze	-11305
▁Volcano	-11306
▁appears	-11307
▁exhibit	-11308
▁freeing	-11309
▁instant	-11310
▁leaders	-11311
▁remains	-11312
▁soundly	-11313
▁storing	-11314
▁sunburn	-11315
▁unstuck	-11316
▁ceremony	-11317
▁escaping	-11318
▁hurrying	-11319
▁jealousy	-11320
▁nibbling	-11321
▁peculiar	-11322
▁silliest	-11323
▁slippers	-11324
▁sweeping	-11325
▁Caterpill	-11326
▁cucumbers	-11327
▁dishonest	-11328
▁dizziness	-11329
▁enchanted	-11330
▁fulfilled	-11331
▁recovered	-11332
▁whooshing	-11333
▁carelessly	-11334
▁connection	-11335
▁displaying	-11336
▁exercising	-11337
▁supportive	-11338
▁Grandmother	-11339
▁Surprisingly	-11340
Ne	-11341
hh	-11342
▁7	-11343
Bra	-11344
onk	-11345
osp	-11346
▁Lo	-11347
Baby	-11348
Star	-11349
Toby	-11350
acle	-11351
ants	-11352
arer	-11353
atue	-11354
beam	-11355
imba	-11356
iped	-11357
zzly	-11358
▁Ivy	-11359
▁Oct	-11360
▁Syd	-11361
▁dim	-11362
▁rud	-11363
▁sup	-11364
Wheee	-11365
arked	-11366
chest	-11367
inded	-11368
maker	-11369
▁Amen	-11370
▁Anty	-11371
▁Call	-11372
▁Dash	-11373
▁Hand	-11374
▁Owen	-11375
▁Pain	-11376
▁Save	-11377
▁dism	-11378
▁flam	-11379
▁gobl	-11380
▁liar	-11381
▁pave	-11382
▁site	-11383
▁till	-11384
master	-11385
▁Bobbi	-11386
▁Catch	-11387
▁Count	-11388
▁Great	-11389
▁Ruffy	-11390
▁Shell	-11391
▁Tabby	-11392
▁benef	-11393
▁brake	-11394
▁moles	-11395
▁ponyt	-11396
▁spied	-11397
▁state	-11398
ushroom	-11399
▁Dinner	-11400
▁Gloria	-11401
▁Harold	-11402
▁Janice	-11403
▁Marcus	-11404
▁Nearby	-11405
▁Rhythm	-11406
▁Smokey	-11407
▁Willie	-11408
▁blinks	-11409
▁buzzes	-11410
▁coiled	-11411
▁goalie	-11412
▁tingle	-11413
▁tiring	-11414
▁toothp	-11415
▁trades	-11416
▁vacuum	-11417
▁Stephen	-11418
▁blessed	-11419
▁cameras	-11420
▁grumble	-11421
▁paddles	-11422
▁parking	-11423
▁partner	-11424
▁princes	-11425
▁screech	-11426
▁tastier	-11427
▁uniting	-11428
▁combined	-11429
▁embraced	-11430
▁forwards	-11431
▁injuries	-11432
▁meatball	-11433
▁pavement	-11434
▁allowance	-11435
▁attendant	-11436
▁entertain	-11437
▁horrified	-11438
▁performer	-11439
▁poisonous	-11440
▁strolling	-11441
▁scientists	-11442
▁disobedient	-11443
▁overflowing	-11444
▁Thanksgiving	-11445
uh	-11446
▁6	-11447
OOM	-11448
ata	-11449
rex	-11450
tie	-11451
uns	-11452
wow	-11453
▁Ig	-11454
Grab	-11455
Moon	-11456
Race	-11457
Whoa	-11458
aleb	-11459
hill	-11460
ippo	-11461
loat	-11462
oebe	-11463
oray	-11464
sery	-11465
teen	-11466
▁Cee	-11467
▁Him	-11468
▁Mir	-11469
▁Nap	-11470
▁Nod	-11471
▁Sit	-11472
▁Tut	-11473
▁Zeb	-11474
▁tac	-11475
▁voy	-11476
azors	-11477
ennis	-11478
etime	-11479
heese	-11480
ocado	-11481
shoot	-11482
▁Dory	-11483
▁Mond	-11484
▁Most	-11485
▁Nosy	-11486
▁bait	-11487
▁fate	-11488
▁guid	-11489
▁scan	-11490
▁smir	-11491
▁Caleb	-11492
▁Clown	-11493
▁Ginny	-11494
▁Horse	-11495
▁Louie	-11496
▁Party	-11497
▁Wanda	-11498
▁calms	-11499
▁choke	-11500
▁drags	-11501
▁frant	-11502
▁paste	-11503
▁stray	-11504
▁views	-11505
▁Cookie	-11506
▁Dennis	-11507
▁Jasper	-11508
▁Junior	-11509
▁Phoebe	-11510
▁Pistol	-11511
▁afloat	-11512
▁autumn	-11513
▁clinic	-11514
▁dusted	-11515
▁explos	-11516
▁granny	-11517
▁quiver	-11518
▁sicker	-11519
▁sorrow	-11520
▁sprung	-11521
▁steaks	-11522
▁stomps	-11523
▁thirst	-11524
▁unsafe	-11525
▁worlds	-11526
ireworks	-11527
▁Flowers	-11528
▁Gorilla	-11529
▁Grandad	-11530
▁Hearing	-11531
▁anyways	-11532
▁blossom	-11533
▁chances	-11534
▁collage	-11535
▁copying	-11536
▁culture	-11537
▁freshly	-11538
▁hammers	-11539
▁ignores	-11540
▁jiggled	-11541
▁nestled	-11542
▁nursery	-11543
▁ruffled	-11544
▁scarier	-11545
▁striped	-11546
▁targets	-11547
shadowing	-11548
▁Passport	-11549
▁arriving	-11550
▁blessing	-11551
▁croaking	-11552
▁flavours	-11553
▁guidance	-11554
▁kayaking	-11555
▁painters	-11556
▁relation	-11557
▁scuttled	-11558
▁sneakers	-11559
▁Jellyfish	-11560
▁favorites	-11561
▁inspected	-11562
▁numbering	-11563
▁resisting	-11564
▁shoreline	-11565
▁snuggling	-11566
▁suitcases	-11567
▁lumberjack	-11568
▁independence	-11569
▁thoughtfully	-11570
▁thoughtfulness	-11571
AA	-11572
’.	-11573
Ble	-11574
POP	-11575
awk	-11576
bag	-11577
bum	-11578
cst	-11579
cup	-11580
del	-11581
run	-11582
two	-11583
Park	-11584
Shut	-11585
Stri	-11586
cred	-11587
cted	-11588
etti	-11589
eyed	-11590
made	-11591
rous	-11592
▁Deb	-11593
▁Eag	-11594
▁Gas	-11595
▁Paw	-11596
Blech	-11597
Throw	-11598
dream	-11599
field	-11600
▁Anya	-11601
▁Bald	-11602
▁Caut	-11603
▁Dale	-11604
▁Hugo	-11605
▁Kari	-11606
▁Nico	-11607
▁Salt	-11608
▁adop	-11609
▁chug	-11610
▁ecst	-11611
▁empt	-11612
▁hind	-11613
▁jogs	-11614
▁orch	-11615
▁plea	-11616
▁ruff	-11617
▁tock	-11618
▁unsc	-11619
aitlyn	-11620
▁Beepy	-11621
▁Guess	-11622
▁Heart	-11623
▁Huggy	-11624
▁Money	-11625
▁glist	-11626
▁guilt	-11627
▁Angela	-11628
▁Cheese	-11629
▁Jellie	-11630
▁Lizard	-11631
▁MooMoo	-11632
▁Muscle	-11633
▁Pillow	-11634
▁coughs	-11635
▁eleven	-11636
▁goblin	-11637
▁howled	-11638
▁mopped	-11639
▁quarre	-11640
▁rarely	-11641
▁riches	-11642
▁runway	-11643
▁serves	-11644
▁stalks	-11645
▁studio	-11646
▁unwell	-11647
▁walker	-11648
▁Melinda	-11649
▁barrels	-11650
▁channel	-11651
▁closest	-11652
▁equally	-11653
▁mirrors	-11654
▁neighed	-11655
▁peeling	-11656
▁plumber	-11657
▁raisins	-11658
▁repairs	-11659
▁squeaks	-11660
▁sucking	-11661
▁tending	-11662
▁Patience	-11663
▁confetti	-11664
▁cracking	-11665
▁daydream	-11666
▁dragging	-11667
▁farewell	-11668
▁flipping	-11669
▁involved	-11670
▁register	-11671
▁scooping	-11672
▁shiniest	-11673
▁stunning	-11674
▁wondrous	-11675
▁exercised	-11676
▁glistened	-11677
▁receiving	-11678
▁releasing	-11679
▁remaining	-11680
▁victorious	-11681
▁surprisingly	-11682
▁Foreshadowing	-11683
Pl	-11684
gl	-11685
',"	-11686
Fun	-11687
May	-11688
asc	-11689
roy	-11690
Lola	-11691
Mmmm	-11692
With	-11693
ashy	-11694
fect	-11695
gets	-11696
hide	-11697
ocks	-11698
reck	-11699
rupt	-11700
zero	-11701
▁Ari	-11702
▁Eli	-11703
▁Scr	-11704
▁Syl	-11705
▁Tad	-11706
▁fer	-11707
▁mid	-11708
▁wit	-11709
Alice	-11710
Betty	-11711
Pizza	-11712
aulif	-11713
irley	-11714
itive	-11715
magic	-11716
spell	-11717
venge	-11718
▁Clar	-11719
▁Cora	-11720
▁Gear	-11721
▁Olaf	-11722
▁Shop	-11723
▁Snee	-11724
▁herd	-11725
▁main	-11726
▁oper	-11727
▁rash	-11728
▁tran	-11729
Bessie	-11730
▁Brush	-11731
▁Hours	-11732
▁House	-11733
▁Jetty	-11734
▁Lying	-11735
▁Marco	-11736
▁Meena	-11737
▁North	-11738
▁Pixie	-11739
▁Ringo	-11740
▁Scott	-11741
▁amuse	-11742
▁bared	-11743
▁boing	-11744
▁diver	-11745
▁fifth	-11746
▁fired	-11747
▁risen	-11748
▁slaps	-11749
▁tiara	-11750
▁Bumble	-11751
▁Debbie	-11752
▁Mighty	-11753
▁cities	-11754
▁cranes	-11755
▁diaper	-11756
▁dismay	-11757
▁driven	-11758
▁pastor	-11759
▁skates	-11760
▁strict	-11761
▁twitch	-11762
▁voyage	-11763
▁wagons	-11764
▁watery	-11765
▁wilder	-11766
▁wilted	-11767
▁Harriet	-11768
▁Richard	-11769
▁Sabrina	-11770
▁bubbled	-11771
▁deepest	-11772
▁flipper	-11773
▁hovered	-11774
▁nibbles	-11775
▁quality	-11776
▁revenge	-11777
▁spinach	-11778
▁warming	-11779
▁antennae	-11780
▁brighten	-11781
▁cabinets	-11782
▁chimneys	-11783
▁droplets	-11784
▁ecstatic	-11785
▁flamingo	-11786
▁glinting	-11787
▁grinning	-11788
▁lifetime	-11789
▁lunchbox	-11790
▁mornings	-11791
▁pedalled	-11792
▁playmate	-11793
▁searches	-11794
▁spitting	-11795
▁terribly	-11796
▁Cautiously	-11797
▁adventurer	-11798
▁delightful	-11799
▁suggesting	-11800
Congratulations	-11801
ST	-11802
Par	-11803
Sir	-11804
Zoo	-11805
att	-11806
▁5.	-11807
Ding	-11808
Lion	-11809
Lost	-11810
Math	-11811
anya	-11812
arch	-11813
asey	-11814
ilig	-11815
isky	-11816
mill	-11817
pers	-11818
toes	-11819
▁Mei	-11820
▁Pal	-11821
▁nin	-11822
▁nor	-11823
▁unb	-11824
anked	-11825
chers	-11826
inner	-11827
there	-11828
▁Cole	-11829
▁Deaf	-11830
▁Gail	-11831
▁Head	-11832
▁Lacy	-11833
▁Lili	-11834
▁Soup	-11835
▁tack	-11836
Strike	-11837
handed	-11838
itters	-11839
▁Agnes	-11840
▁Bring	-11841
▁Claws	-11842
▁Donny	-11843
▁Hanna	-11844
▁Lance	-11845
▁Mario	-11846
▁Misty	-11847
▁Peach	-11848
▁Simba	-11849
▁Skull	-11850
▁Tanya	-11851
▁Terri	-11852
▁album	-11853
▁beeps	-11854
▁clung	-11855
▁dials	-11856
▁glimp	-11857
▁packs	-11858
▁react	-11859
▁rhyme	-11860
▁saves	-11861
▁stems	-11862
▁Chalky	-11863
▁Choose	-11864
▁Freeze	-11865
▁Goldie	-11866
▁Lumber	-11867
▁Monday	-11868
▁Prunes	-11869
▁Statue	-11870
▁Sydney	-11871
▁copies	-11872
▁croaks	-11873
▁digger	-11874
▁doggie	-11875
▁grains	-11876
▁hooked	-11877
▁infect	-11878
▁prices	-11879
▁shades	-11880
▁snorts	-11881
▁superp	-11882
▁surfer	-11883
▁unison	-11884
▁Balloon	-11885
▁Buttons	-11886
▁Charles	-11887
▁Kaitlyn	-11888
▁Measure	-11889
▁Shirley	-11890
▁Writing	-11891
▁grunted	-11892
▁pickles	-11893
▁pricked	-11894
▁reflect	-11895
▁resumed	-11896
▁sleeves	-11897
▁snipped	-11898
▁stylish	-11899
▁Wherever	-11900
▁bandaged	-11901
▁breathes	-11902
▁captured	-11903
▁haystack	-11904
▁journals	-11905
▁keyboard	-11906
▁ladybird	-11907
▁quitting	-11908
▁simplest	-11909
▁stations	-11910
▁wobbling	-11911
▁yielding	-11912
auliflower	-11913
▁confusing	-11914
▁energized	-11915
▁hopefully	-11916
▁hurriedly	-11917
▁shimmered	-11918
▁skeletons	-11919
▁Underneath	-11920
▁hesitantly	-11921
▁imaginative	-11922
▁concentrated	-11923
▁conversations	-11924
Pet	-11925
ald	-11926
bel	-11927
Hide	-11928
Phew	-11929
apes	-11930
azzy	-11931
erie	-11932
ires	-11933
jump	-11934
mosp	-11935
pass	-11936
tles	-11937
wing	-11938
▁Bab	-11939
▁Bat	-11940
▁New	-11941
▁Str	-11942
▁Tur	-11943
▁bon	-11944
▁owe	-11945
▁tit	-11946
▁ups	-11947
Emily	-11948
Greet	-11949
Robot	-11950
Stand	-11951
Susie	-11952
eline	-11953
rease	-11954
unate	-11955
▁BEEP	-11956
▁Clap	-11957
▁High	-11958
▁Karl	-11959
▁Lime	-11960
▁Mars	-11961
▁Nemo	-11962
▁Rest	-11963
▁halo	-11964
▁rugs	-11965
▁vast	-11966
▁wasp	-11967
Wisdom	-11968
alance	-11969
number	-11970
▁Peppy	-11971
▁Woody	-11972
▁dilig	-11973
▁dolly	-11974
▁gnome	-11975
▁gummy	-11976
▁hobby	-11977
▁pinec	-11978
▁resol	-11979
History	-11980
applaud	-11981
ulously	-11982
▁Mickey	-11983
▁Mister	-11984
▁Spotty	-11985
▁atmosp	-11986
▁bossed	-11987
▁curves	-11988
▁heater	-11989
▁impact	-11990
▁inched	-11991
▁kayaks	-11992
▁liking	-11993
▁mended	-11994
▁reader	-11995
▁skulls	-11996
▁starry	-11997
▁teases	-11998
▁terror	-11999
▁Spanish	-12000
▁bruised	-12001
▁clearer	-12002
▁coconut	-12003
▁cookout	-12004
▁cowgirl	-12005
▁creaked	-12006
▁gliding	-12007
▁grownup	-12008
▁messing	-12009
▁patting	-12010
▁pudding	-12011
▁screens	-12012
▁spreads	-12013
▁sunsets	-12014
▁weights	-12015
▁Kindness	-12016
▁Learning	-12017
▁appetite	-12018
▁drifting	-12019
▁gestures	-12020
▁grownups	-12021
▁includes	-12022
▁securely	-12023
▁trapping	-12024
▁amusement	-12025
▁attacking	-12026
▁drumstick	-12027
▁insistent	-12028
▁punishing	-12029
▁scribbled	-12030
▁atmosphere	-12031
▁cigarettes	-12032
▁mattresses	-12033
▁earthquakes	-12034
▁frantically	-12035
▁embarrassment	-12036
Br	-12037
▁8	-12038
!''	-12039
Son	-12040
ori	-12041
who	-12042
yum	-12043
▁1,	-12044
▁3.	-12045
▁Ve	-12046
amon	-12047
eech	-12048
ingu	-12049
itiz	-12050
lost	-12051
reak	-12052
woof	-12053
▁Aut	-12054
▁Blu	-12055
▁Cop	-12056
▁Cup	-12057
▁Mal	-12058
▁Sel	-12059
▁acc	-12060
▁dut	-12061
▁laz	-12062
▁raw	-12063
▁sul	-12064
inked	-12065
upply	-12066
▁Chat	-12067
▁Golf	-12068
▁Must	-12069
▁Octo	-12070
▁Poke	-12071
▁Seek	-12072
▁Snip	-12073
▁West	-12074
▁Wine	-12075
▁burp	-12076
▁bust	-12077
▁craf	-12078
▁garl	-12079
▁pals	-12080
▁plum	-12081
▁rejo	-12082
▁requ	-12083
▁tech	-12084
▁unpl	-12085
Mister	-12086
Monkey	-12087
ickest	-12088
iffere	-12089
ornado	-12090
raying	-12091
▁Acorn	-12092
▁Asked	-12093
▁Clock	-12094
▁Jesse	-12095
▁Lions	-12096
▁Merry	-12097
▁Muffy	-12098
▁Percy	-12099
▁chunk	-12100
▁citiz	-12101
▁cloak	-12102
▁mules	-12103
▁polka	-12104
▁pouts	-12105
▁scrap	-12106
▁slams	-12107
▁swish	-12108
▁tangy	-12109
▁BaaBaa	-12110
▁Celery	-12111
▁Pencil	-12112
▁fruity	-12113
▁hating	-12114
▁lately	-12115
▁meaner	-12116
▁scarfs	-12117
▁speech	-12118
▁trails	-12119
▁whilst	-12120
▁Heather	-12121
▁bullies	-12122
▁crumble	-12123
▁demands	-12124
▁jingled	-12125
▁luckier	-12126
▁mothers	-12127
▁orchard	-12128
▁placing	-12129
▁scoring	-12130
▁shaving	-12131
▁spinner	-12132
▁yummier	-12133
▁Mushroom	-12134
▁displays	-12135
▁distress	-12136
▁fastened	-12137
▁greeting	-12138
▁mastered	-12139
▁measures	-12140
▁obstacle	-12141
▁sounding	-12142
▁trespass	-12143
▁Alligator	-12144
▁Chocolate	-12145
▁Intrigued	-12146
▁gentleman	-12147
▁grumbling	-12148
▁interests	-12149
▁pedalling	-12150
▁captivated	-12151
▁cleverness	-12152
▁sculptures	-12153
▁succeeding	-12154
▁toothpaste	-12155
▁Butterflies	-12156
AR	-12157
En	-12158
Mo	-12159
?'.	-12160
?”,	-12161
App	-12162
Mix	-12163
baa	-12164
exi	-12165
itz	-12166
ker	-12167
kie	-12168
urf	-12169
Love	-12170
ongo	-12171
ruck	-12172
▁Dor	-12173
▁Moe	-12174
▁Oil	-12175
▁obl	-12176
emons	-12177
opera	-12178
▁Cand	-12179
▁Cory	-12180
▁Fuel	-12181
▁Hard	-12182
▁Horn	-12183
▁Lexi	-12184
▁Plan	-12185
▁Quiz	-12186
▁Seth	-12187
▁Swan	-12188
▁Theo	-12189
▁brag	-12190
▁buds	-12191
▁dazz	-12192
▁intr	-12193
▁magp	-12194
▁poof	-12195
▁prec	-12196
▁roam	-12197
▁sons	-12198
Before	-12199
belief	-12200
making	-12201
minded	-12202
ophies	-12203
rapher	-12204
▁CRASH	-12205
▁Casey	-12206
▁Cross	-12207
▁Hippo	-12208
▁Paint	-12209
▁Pilly	-12210
▁Pitch	-12211
▁Sonia	-12212
▁Sully	-12213
▁Toast	-12214
▁cases	-12215
▁cents	-12216
▁conso	-12217
▁crust	-12218
▁demon	-12219
▁firew	-12220
▁mitts	-12221
▁smoot	-12222
▁taxis	-12223
brushes	-12224
venture	-12225
▁Bright	-12226
▁France	-12227
▁Frisky	-12228
▁Maxine	-12229
▁Monica	-12230
▁Mousey	-12231
▁Nicole	-12232
▁Rubber	-12233
▁Shrimp	-12234
▁Walter	-12235
▁blurry	-12236
▁defend	-12237
▁double	-12238
▁feared	-12239
▁flutes	-12240
▁losers	-12241
▁neared	-12242
▁razors	-12243
▁saddle	-12244
▁sealed	-12245
▁shaker	-12246
▁stormy	-12247
▁tagged	-12248
▁tulips	-12249
Whenever	-12250
ifferent	-12251
▁Anytime	-12252
▁History	-12253
▁Miranda	-12254
▁Moments	-12255
▁anthill	-12256
▁carpets	-12257
▁echoing	-12258
▁extingu	-12259
▁glimmer	-12260
▁leashes	-12261
▁padlock	-12262
▁private	-12263
▁replies	-12264
▁sibling	-12265
▁tougher	-12266
▁unscrew	-12267
▁vendors	-12268
▁wetness	-12269
▁witness	-12270
Greetings	-12271
▁Snowball	-12272
▁believes	-12273
▁carriage	-12274
▁furthest	-12275
▁grounded	-12276
▁incident	-12277
▁sentence	-12278
▁sheepish	-12279
▁snarling	-12280
▁sniffles	-12281
▁strummed	-12282
▁unfreeze	-12283
▁baseballs	-12284
▁clipboard	-12285
▁colouring	-12286
▁resources	-12287
▁someplace	-12288
▁stumbling	-12289
▁vanishing	-12290
▁wriggling	-12291
▁Dictionary	-12292
▁background	-12293
▁possession	-12294
▁practising	-12295
▁Caterpillar	-12296
▁collections	-12297
▁importantly	-12298
▁complimented	-12299
▁photographer	-12300
Am	-12301
gs	-12302
Arr	-12303
aya	-12304
bec	-12305
cel	-12306
ima	-12307
rit	-12308
sea	-12309
ydr	-12310
▁ki	-12311
Elly	-12312
Mail	-12313
Oink	-12314
Over	-12315
Pete	-12316
bowl	-12317
eral	-12318
iety	-12319
lier	-12320
occo	-12321
▁"3"	-12322
▁Eng	-12323
▁Lea	-12324
▁Mig	-12325
▁Net	-12326
▁Nik	-12327
▁kil	-12328
▁pod	-12329
Dolly	-12330
Snowy	-12331
Sunny	-12332
Tilly	-12333
Young	-12334
clude	-12335
gency	-12336
ouble	-12337
table	-12338
▁Barb	-12339
▁Beet	-12340
▁Chel	-12341
▁Draw	-12342
▁Food	-12343
▁Glue	-12344
▁Lara	-12345
▁Sold	-12346
▁cann	-12347
▁cinn	-12348
▁craz	-12349
▁hydr	-12350
▁stab	-12351
▁zone	-12352
ancing	-12353
record	-12354
▁Bendy	-12355
▁Carry	-12356
▁Genie	-12357
▁Gruff	-12358
▁Mason	-12359
▁Miles	-12360
▁Night	-12361
▁Pizza	-12362
▁Pumpy	-12363
▁Stone	-12364
▁Windy	-12365
▁ambit	-12366
▁cawed	-12367
▁chant	-12368
▁dumps	-12369
▁feeds	-12370
▁glues	-12371
▁surge	-12372
▁swift	-12373
▁tapes	-12374
▁tiles	-12375
▁title	-12376
Release	-12377
Whoever	-12378
atience	-12379
▁Cactus	-12380
▁Disapp	-12381
▁Lastly	-12382
▁Ribbit	-12383
▁Switch	-12384
▁advant	-12385
▁banner	-12386
▁boldly	-12387
▁effect	-12388
▁glance	-12389
▁gobble	-12390
▁ladies	-12391
▁packet	-12392
▁prized	-12393
▁radios	-12394
▁sizzle	-12395
▁wailed	-12396
▁waists	-12397
▁Allowed	-12398
▁Dorothy	-12399
▁Fireman	-12400
▁Octopus	-12401
▁Smiling	-12402
▁awaited	-12403
▁glimpse	-12404
▁greener	-12405
▁grounds	-12406
▁insists	-12407
▁inspect	-12408
▁mustard	-12409
▁options	-12410
▁posters	-12411
▁protest	-12412
▁session	-12413
▁sharpen	-12414
▁sipping	-12415
▁sunbeam	-12416
▁cinnamon	-12417
▁floaties	-12418
▁meanings	-12419
▁position	-12420
▁servants	-12421
▁subjects	-12422
▁switches	-12423
▁trophies	-12424
▁villager	-12425
▁Fireworks	-12426
▁Spaghetti	-12427
▁abilities	-12428
▁disbelief	-12429
▁encounter	-12430
▁infection	-12431
▁luxurious	-12432
▁nightfall	-12433
▁tightened	-12434
▁thankfully	-12435
▁cooperation	-12436
▁perseverance	-12437
Op	-12438
ns	-12439
New	-12440
Woo	-12441
axi	-12442
cha	-12443
law	-12444
rip	-12445
top	-12446
via	-12447
vor	-12448
▁15	-12449
▁Ra	-12450
Cook	-12451
Spin	-12452
Stir	-12453
eers	-12454
gent	-12455
grow	-12456
have	-12457
help	-12458
ishy	-12459
know	-12460
poke	-12461
rize	-12462
sure	-12463
they	-12464
▁"1,	-12465
▁Bes	-12466
▁Cam	-12467
▁Gri	-12468
▁Hay	-12469
▁Mor	-12470
▁Tam	-12471
▁arc	-12472
Bravo	-12473
Grace	-12474
Lucky	-12475
Water	-12476
alled	-12477
anted	-12478
azing	-12479
raser	-12480
tweet	-12481
▁Cont	-12482
▁Dark	-12483
▁Fall	-12484
▁Flip	-12485
▁Fold	-12486
▁Hoop	-12487
▁Juan	-12488
▁Page	-12489
▁Peek	-12490
▁Sing	-12491
▁Wire	-12492
▁clam	-12493
▁moan	-12494
▁oink	-12495
▁pier	-12496
▁sele	-12497
▁subt	-12498
▁wavy	-12499
Cheese	-12500
iverse	-12501
ragile	-12502
whoosh	-12503
▁Cable	-12504
▁Garry	-12505
▁Going	-12506
▁Kippy	-12507
▁Marcy	-12508
▁Smile	-12509
▁Tracy	-12510
▁areas	-12511
▁eater	-12512
▁elves	-12513
▁fifty	-12514
▁glide	-12515
▁murky	-12516
▁newly	-12517
▁ouchy	-12518
▁pyram	-12519
▁slope	-12520
▁stash	-12521
▁trace	-12522
▁Apples	-12523
▁Archie	-12524
▁Dancer	-12525
▁Flying	-12526
▁Sheila	-12527
▁Trevor	-12528
▁betray	-12529
▁boomed	-12530
▁eldest	-12531
▁finder	-12532
▁fondly	-12533
▁heeded	-12534
▁injury	-12535
▁magpie	-12536
▁opener	-12537
▁passer	-12538
▁prepar	-12539
▁rinses	-12540
▁sevent	-12541
▁strand	-12542
▁uneven	-12543
▁Avocado	-12544
▁Belinda	-12545
▁Bethany	-12546
▁Chelsea	-12547
▁Jackson	-12548
▁Reverse	-12549
▁assured	-12550
▁battles	-12551
▁catcher	-12552
▁chugged	-12553
▁console	-12554
▁crackle	-12555
▁despair	-12556
▁endless	-12557
▁escapes	-12558
▁ironing	-12559
▁sandals	-12560
▁sighing	-12561
▁similar	-12562
▁wrecked	-12563
▁cheetahs	-12564
▁collects	-12565
▁faithful	-12566
▁fighters	-12567
▁firewood	-12568
▁fishbowl	-12569
▁muttered	-12570
▁reaction	-12571
▁sensible	-12572
▁spelling	-12573
▁stinging	-12574
▁toughest	-12575
▁unzipped	-12576
▁villains	-12577
▁Disappoin	-12578
▁Goodnight	-12579
▁Listening	-12580
▁Stephanie	-12581
▁achieving	-12582
▁blessings	-12583
▁crunching	-12584
▁dandelion	-12585
▁explosion	-12586
▁hammering	-12587
▁playfully	-12588
▁potential	-12589
▁rainwater	-12590
▁Rhinoceros	-12591
▁Wednesdays	-12592
▁accidently	-12593
▁billboards	-12594
▁grumpiness	-12595
▁splattered	-12596
▁Reluctantly	-12597
▁approaching	-12598
▁cooperative	-12599
At	-12600
cr	-12601
fr	-12602
ji	-12603
Aha	-12604
Ant	-12605
Ban	-12606
Del	-12607
Fox	-12608
Gas	-12609
Old	-12610
Per	-12611
Sky	-12612
Win	-12613
ems	-12614
iya	-12615
mit	-12616
moo	-12617
yer	-12618
▁du	-12619
Jake	-12620
anas	-12621
raph	-12622
vere	-12623
zzle	-12624
▁Arm	-12625
▁Ear	-12626
▁Ind	-12627
▁Sec	-12628
▁Tag	-12629
▁Ten	-12630
▁hee	-12631
▁lav	-12632
▁obv	-12633
Bring	-12634
Green	-12635
Marry	-12636
Spike	-12637
chant	-12638
crack	-12639
helle	-12640
ifted	-12641
imate	-12642
oodle	-12643
ption	-12644
somet	-12645
stery	-12646
uckle	-12647
▁Addy	-12648
▁Cleo	-12649
▁Cord	-12650
▁Dove	-12651
▁Four	-12652
▁Happ	-12653
▁Need	-12654
▁Pump	-12655
▁Scar	-12656
▁Word	-12657
▁cham	-12658
▁cork	-12659
▁dash	-12660
▁dice	-12661
▁lays	-12662
▁loaf	-12663
▁moss	-12664
▁pest	-12665
▁rasp	-12666
▁sauc	-12667
▁sund	-12668
▁tend	-12669
Dinner	-12670
Enough	-12671
Number	-12672
Vanish	-12673
coming	-12674
crease	-12675
ercise	-12676
▁Cubey	-12677
▁Dolls	-12678
▁Pengu	-12679
▁Relax	-12680
▁Sauce	-12681
▁Sheep	-12682
▁Train	-12683
▁brief	-12684
▁chief	-12685
▁coast	-12686
▁fewer	-12687
▁perch	-12688
▁picky	-12689
▁ponds	-12690
▁ramps	-12691
▁snows	-12692
▁spine	-12693
▁stead	-12694
▁tulip	-12695
entions	-12696
respect	-12697
▁Blocks	-12698
▁Friday	-12699
▁Isabel	-12700
▁Making	-12701
▁Pebble	-12702
▁Slippy	-12703
▁Within	-12704
▁badges	-12705
▁barbec	-12706
▁braids	-12707
▁bullet	-12708
▁clover	-12709
▁cocked	-12710
▁longed	-12711
▁perked	-12712
▁rushes	-12713
▁sauces	-12714
▁volume	-12715
Fighting	-12716
▁Mailbox	-12717
▁Network	-12718
▁admires	-12719
▁benefit	-12720
▁blouses	-12721
▁booming	-12722
▁classes	-12723
▁drummer	-12724
▁flicked	-12725
▁fulfill	-12726
▁funnier	-12727
▁locking	-12728
▁outdoor	-12729
▁paramed	-12730
▁savored	-12731
▁seesaws	-12732
▁shooter	-12733
▁trainer	-12734
▁uncover	-12735
ependable	-12736
knowingly	-12737
▁Michelle	-12738
▁Sparkles	-12739
▁Victoria	-12740
▁approval	-12741
▁citizens	-12742
▁cleanest	-12743
▁collapse	-12744
▁critters	-12745
▁fanciest	-12746
▁frighten	-12747
▁gleaming	-12748
▁homemade	-12749
▁imagines	-12750
▁lavender	-12751
▁rejoiced	-12752
▁snatches	-12753
▁traveler	-12754
▁windmill	-12755
▁advantage	-12756
▁attempted	-12757
▁beekeeper	-12758
▁collector	-12759
▁eagerness	-12760
▁feathered	-12761
▁judgement	-12762
▁priceless	-12763
▁squealing	-12764
▁storybook	-12765
▁thrilling	-12766
▁chattering	-12767
▁detectives	-12768
▁hardworking	-12769
▁recognizing	-12770
Kn	-12771
Pa	-12772
Po	-12773
ANG	-12774
Pay	-12775
Toy	-12776
Val	-12777
gle	-12778
hot	-12779
mar	-12780
ooo	-12781
ows	-12782
sel	-12783
sun	-12784
tac	-12785
zel	-12786
zer	-12787
▁30	-12788
▁Ev	-12789
▁Li	-12790
Cake	-12791
ersa	-12792
haps	-12793
life	-12794
uggy	-12795
▁Aid	-12796
▁jer	-12797
▁pew	-12798
▁som	-12799
Ellie	-12800
Momma	-12801
Olive	-12802
Value	-12803
armed	-12804
crumb	-12805
ented	-12806
happy	-12807
ippee	-12808
ooped	-12809
ottie	-12810
three	-12811
▁Also	-12812
▁Aren	-12813
▁Biff	-12814
▁Cece	-12815
▁Elli	-12816
▁Fizz	-12817
▁Fork	-12818
▁Laug	-12819
▁Trix	-12820
▁Wild	-12821
▁Yuck	-12822
▁anch	-12823
▁chem	-12824
▁cock	-12825
▁reel	-12826
▁tags	-12827
▁toot	-12828
▁trad	-12829
▁vain	-12830
Almost	-12831
Speedy	-12832
danger	-12833
phones	-12834
▁Celia	-12835
▁Dance	-12836
▁Jessy	-12837
▁Kimmy	-12838
▁Neigh	-12839
▁Porky	-12840
▁Rocco	-12841
▁Rocks	-12842
▁Spell	-12843
▁Story	-12844
▁Tutor	-12845
▁avail	-12846
▁boost	-12847
▁canes	-12848
▁chart	-12849
▁death	-12850
▁doubt	-12851
▁latch	-12852
▁mercy	-12853
▁outsm	-12854
▁posed	-12855
▁puffy	-12856
▁punch	-12857
▁roles	-12858
▁strut	-12859
▁tacos	-12860
Believe	-12861
alities	-12862
because	-12863
grandma	-12864
▁Anchor	-12865
▁Brandy	-12866
▁Browny	-12867
▁Clover	-12868
▁Gently	-12869
▁Harvey	-12870
▁Leaves	-12871
▁Lillie	-12872
▁Oyster	-12873
▁Regret	-12874
▁Smelly	-12875
▁Sylvia	-12876
▁archer	-12877
▁bobbed	-12878
▁curved	-12879
▁enters	-12880
▁hermit	-12881
▁hopper	-12882
▁meanie	-12883
▁option	-12884
▁ponder	-12885
▁pucker	-12886
▁ridden	-12887
▁tumble	-12888
▁volunt	-12889
▁weakly	-12890
▁Giggles	-12891
▁Jeffrey	-12892
▁artists	-12893
▁blended	-12894
▁carrier	-12895
▁emptied	-12896
▁fetches	-12897
▁forming	-12898
▁guiding	-12899
▁handled	-12900
▁howling	-12901
▁leaping	-12902
▁needing	-12903
▁parting	-12904
▁somersa	-12905
▁spatula	-12906
▁suppose	-12907
▁surfers	-12908
▁trimmed	-12909
▁Mustache	-12910
▁Painting	-12911
▁ashtrays	-12912
▁barbecue	-12913
▁betrayed	-12914
▁juggling	-12915
▁marrying	-12916
▁poisoned	-12917
▁ponytail	-12918
▁spotless	-12919
▁stumbles	-12920
▁underest	-12921
▁waitress	-12922
university	-12923
▁Butterfly	-12924
▁Different	-12925
▁clutching	-12926
▁meatballs	-12927
▁preferred	-12928
▁propeller	-12929
▁replacing	-12930
▁squeaking	-12931
▁strengths	-12932
▁struggles	-12933
▁breadcrumb	-12934
▁sheepishly	-12935
▁springtime	-12936
▁wonderland	-12937
▁Disappointed	-12938
▁announcement	-12939
▁recommendations	-12940
Ho	-12941
LA	-12942
Sl	-12943
Um	-12944
Wr	-12945
Yog	-12946
don	-12947
▁4,	-12948
▁ah	-12949
▁hy	-12950
Dare	-12951
Dogs	-12952
Rose	-12953
STOP	-12954
Soup	-12955
Tock	-12956
abet	-12957
athe	-12958
beha	-12959
gery	-12960
hony	-12961
pher	-12962
rand	-12963
test	-12964
ulty	-12965
word	-12966
▁Bin	-12967
▁Bry	-12968
▁Pan	-12969
▁Rec	-12970
▁Rot	-12971
▁Van	-12972
▁due	-12973
▁ess	-12974
▁kiw	-12975
▁pry	-12976
▁zig	-12977
Charl	-12978
Dance	-12979
Jelly	-12980
Mandy	-12981
Zoomy	-12982
about	-12983
ordan	-12984
orget	-12985
shake	-12986
▁Barn	-12987
▁Book	-12988
▁Corn	-12989
▁Craw	-12990
▁Marc	-12991
▁Move	-12992
▁Neck	-12993
▁Nell	-12994
▁Seal	-12995
▁Tere	-12996
▁Whip	-12997
▁Wool	-12998
▁alph	-12999
▁axes	-13000
▁flex	-13001
▁hasn	-13002
▁hula	-13003
▁kern	-13004
▁loss	-13005
▁mult	-13006
▁pang	-13007
▁pits	-13008
▁recy	-13009
▁ruby	-13010
▁snoo	-13011
▁sobs	-13012
▁sunk	-13013
▁toad	-13014
Johnny	-13015
Pretty	-13016
asting	-13017
ricket	-13018
search	-13019
▁Aaron	-13020
▁Bongo	-13021
▁Brady	-13022
▁Emmie	-13023
▁Fancy	-13024
▁Franc	-13025
▁Marla	-13026
▁Nanny	-13027
▁Piper	-13028
▁Screw	-13029
▁Slide	-13030
▁Treat	-13031
▁Wanna	-13032
▁armor	-13033
▁batch	-13034
▁beams	-13035
▁flush	-13036
▁grade	-13037
▁grave	-13038
▁jeeps	-13039
▁moose	-13040
▁pawed	-13041
▁rakes	-13042
▁repay	-13043
▁slows	-13044
▁splin	-13045
▁total	-13046
Charlie	-13047
artment	-13048
behaved	-13049
fashion	-13050
iscilla	-13051
ization	-13052
riosity	-13053
▁Bubbly	-13054
▁Cassie	-13055
▁Having	-13056
▁Marian	-13057
▁ashore	-13058
▁bakers	-13059
▁bumble	-13060
▁donate	-13061
▁droopy	-13062
▁errand	-13063
▁festiv	-13064
▁habits	-13065
▁layers	-13066
▁mixers	-13067
▁nailed	-13068
▁pickle	-13069
▁planks	-13070
▁purses	-13071
▁spoilt	-13072
▁storyt	-13073
▁tidier	-13074
▁uneasy	-13075
▁yachts	-13076
▁yanked	-13077
▁Anthony	-13078
▁Fashion	-13079
▁Jumping	-13080
▁Matches	-13081
▁Soldier	-13082
▁Teacher	-13083
▁anchors	-13084
▁behaves	-13085
▁bleated	-13086
▁bobbing	-13087
▁closets	-13088
▁compost	-13089
▁dislike	-13090
▁itching	-13091
▁limping	-13092
▁schools	-13093
▁shivers	-13094
▁unlucky	-13095
▁Feathers	-13096
▁Spinning	-13097
▁alphabet	-13098
▁bedrooms	-13099
▁boarding	-13100
▁chambers	-13101
▁sprouted	-13102
▁stamping	-13103
▁stressed	-13104
▁waddling	-13105
▁whirring	-13106
▁woodland	-13107
▁Sunflower	-13108
▁appearing	-13109
▁calendars	-13110
▁described	-13111
▁ducklings	-13112
▁excellent	-13113
▁footballs	-13114
▁gardeners	-13115
▁longingly	-13116
▁marveling	-13117
▁persisted	-13118
▁popsicles	-13119
▁regretful	-13120
▁stitching	-13121
▁disrespect	-13122
▁headphones	-13123
▁relaxation	-13124
▁Cauliflower	-13125
▁contentedly	-13126
▁unknowingly	-13127
Gl	-13128
NO	-13129
OU	-13130
Ted	-13131
Tre	-13132
azy	-13133
fun	-13134
idd	-13135
ius	-13136
ona	-13137
ppo	-13138
spe	-13139
uss	-13140
▁cy	-13141
Drop	-13142
Exit	-13143
Life	-13144
Prin	-13145
Rest	-13146
Wind	-13147
agon	-13148
bbie	-13149
bear	-13150
gain	-13151
knob	-13152
mbur	-13153
ornn	-13154
roll	-13155
slap	-13156
toed	-13157
toot	-13158
▁Ber	-13159
▁Bon	-13160
▁Far	-13161
▁Jem	-13162
▁Saf	-13163
▁Ser	-13164
▁bay	-13165
▁bul	-13166
▁bun	-13167
▁caf	-13168
▁gad	-13169
▁gal	-13170
Birds	-13171
Books	-13172
Lemon	-13173
Looks	-13174
Smile	-13175
aging	-13176
ators	-13177
cloud	-13178
ereal	-13179
erous	-13180
icity	-13181
owner	-13182
sized	-13183
udges	-13184
▁Amie	-13185
▁Beat	-13186
▁Cray	-13187
▁East	-13188
▁Fear	-13189
▁Hide	-13190
▁Lego	-13191
▁Nala	-13192
▁Pole	-13193
▁aims	-13194
▁cack	-13195
▁frol	-13196
▁mash	-13197
▁plun	-13198
▁untw	-13199
Freddy	-13200
Nobody	-13201
Stupid	-13202
jected	-13203
ousers	-13204
scapes	-13205
serted	-13206
udying	-13207
umpled	-13208
▁Allen	-13209
▁Celly	-13210
▁Diane	-13211
▁Elmer	-13212
▁Guppy	-13213
▁Marta	-13214
▁Micky	-13215
▁Mirac	-13216
▁Nikki	-13217
▁Paper	-13218
▁Pasta	-13219
▁Pilot	-13220
▁Pippy	-13221
▁Throw	-13222
▁Thumb	-13223
▁beats	-13224
▁bills	-13225
▁clang	-13226
▁curse	-13227
▁dates	-13228
▁layed	-13229
▁moist	-13230
▁overc	-13231
▁recyc	-13232
▁swell	-13233
▁techn	-13234
▁weave	-13235
license	-13236
ornness	-13237
pitched	-13238
retched	-13239
ricanes	-13240
▁Callie	-13241
▁Cereal	-13242
▁Chairy	-13243
▁Chatty	-13244
▁Cloudy	-13245
▁Colors	-13246
▁Connor	-13247
▁Jordan	-13248
▁Juliet	-13249
▁Mattie	-13250
▁Miguel	-13251
▁Tigger	-13252
▁behold	-13253
▁cupped	-13254
▁draped	-13255
▁evenly	-13256
▁hambur	-13257
▁igloos	-13258
▁parach	-13259
▁regard	-13260
▁remark	-13261
▁retrie	-13262
▁tailor	-13263
▁violet	-13264
▁woolly	-13265
▁youths	-13266
▁Blossom	-13267
▁Knowing	-13268
▁Napping	-13269
▁Peeking	-13270
▁Stories	-13271
▁Tornado	-13272
▁bedside	-13273
▁cockpit	-13274
▁conquer	-13275
▁marches	-13276
▁parades	-13277
▁richest	-13278
▁shyness	-13279
▁skating	-13280
▁sparked	-13281
▁trained	-13282
▁visible	-13283
▁wizards	-13284
▁Beatrice	-13285
▁Felicity	-13286
▁Isabelle	-13287
▁Laughing	-13288
▁Swimming	-13289
▁admitted	-13290
▁doorknob	-13291
▁evenings	-13292
▁fairness	-13293
▁hammered	-13294
▁inserted	-13295
▁littlest	-13296
▁markings	-13297
▁normally	-13298
▁prisoner	-13299
▁quickest	-13300
▁rattling	-13301
▁secretly	-13302
▁sledding	-13303
▁subtract	-13304
▁sweating	-13305
▁trousers	-13306
▁unharmed	-13307
▁unloaded	-13308
orgettable	-13309
▁Curiosity	-13310
▁Priscilla	-13311
▁childhood	-13312
▁essential	-13313
▁medicines	-13314
▁scribbles	-13315
▁sprinkler	-13316
▁Especially	-13317
▁encourages	-13318
▁landscapes	-13319
▁moderation	-13320
▁recognised	-13321
▁slithering	-13322
▁basketballs	-13323
▁breadcrumbs	-13324
▁combination	-13325
▁disturbance	-13326
▁fascination	-13327
▁impatiently	-13328
▁selfishness	-13329
▁supervision	-13330
▁threatening	-13331
▁Miraculously	-13332
▁construction	-13333
▁stubbornness	-13334
Pr	-13335
ga	-13336
ja	-13337
sk	-13338
▁$	-13339
.''	-13340
?!”	-13341
Brr	-13342
Hoo	-13343
Liz	-13344
Mat	-13345
Pip	-13346
War	-13347
alt	-13348
iqu	-13349
oyd	-13350
sty	-13351
▁Ja	-13352
▁ic	-13353
▁ye	-13354
BOOM	-13355
Bark	-13356
Both	-13357
Kiki	-13358
acky	-13359
affy	-13360
aley	-13361
erek	-13362
essa	-13363
iged	-13364
isha	-13365
lesh	-13366
stem	-13367
unky	-13368
▁Bud	-13369
▁Cur	-13370
▁Mer	-13371
▁Pin	-13372
▁fal	-13373
▁ome	-13374
▁sam	-13375
▁tad	-13376
▁ted	-13377
Could	-13378
Danny	-13379
Lilly	-13380
Robby	-13381
Snake	-13382
atted	-13383
ennas	-13384
enter	-13385
ircus	-13386
ucted	-13387
usage	-13388
▁Blow	-13389
▁Cowy	-13390
▁Fake	-13391
▁Fast	-13392
▁Fine	-13393
▁Flex	-13394
▁Kira	-13395
▁Lori	-13396
▁Mack	-13397
▁Part	-13398
▁Push	-13399
▁Said	-13400
▁Sari	-13401
▁Town	-13402
▁Vera	-13403
▁crad	-13404
▁foss	-13405
▁hens	-13406
▁imit	-13407
▁mini	-13408
▁nick	-13409
▁rumm	-13410
▁stam	-13411
▁tugs	-13412
▁wilt	-13413
Change	-13414
Higher	-13415
Yellow	-13416
achine	-13417
atures	-13418
enched	-13419
ertime	-13420
idered	-13421
isplay	-13422
lessly	-13423
ribbit	-13424
▁Chair	-13425
▁China	-13426
▁Derek	-13427
▁Dolph	-13428
▁Elisa	-13429
▁Elise	-13430
▁Floyd	-13431
▁Learn	-13432
▁Leila	-13433
▁Lucie	-13434
▁Marry	-13435
▁Mitch	-13436
▁Salad	-13437
▁Stars	-13438
▁birdy	-13439
▁blind	-13440
▁buyer	-13441
▁clums	-13442
▁dying	-13443
▁eerie	-13444
▁fives	-13445
▁flesh	-13446
▁minty	-13447
▁pluck	-13448
▁reeds	-13449
▁ruins	-13450
▁trays	-13451
▁whirl	-13452
Stretch	-13453
▁Amelie	-13454
▁Connie	-13455
▁Dreams	-13456
▁Fright	-13457
▁Julian	-13458
▁Months	-13459
▁Planet	-13460
▁Reggie	-13461
▁Repeat	-13462
▁Stacey	-13463
▁Stupid	-13464
▁Trying	-13465
▁Turkey	-13466
▁ducked	-13467
▁fellow	-13468
▁ginger	-13469
▁joyous	-13470
▁mateys	-13471
▁outrun	-13472
▁smoked	-13473
▁smokes	-13474
▁snored	-13475
▁splits	-13476
▁sugary	-13477
▁tackle	-13478
▁thirty	-13479
▁toucan	-13480
▁transp	-13481
▁wildly	-13482
credible	-13483
▁Francis	-13484
▁Holding	-13485
▁Ladybug	-13486
▁Pauline	-13487
▁Scruffy	-13488
▁Success	-13489
▁Trouble	-13490
▁Truckie	-13491
▁beaches	-13492
▁bullets	-13493
▁chuckle	-13494
▁coaster	-13495
▁coldest	-13496
▁comment	-13497
▁critter	-13498
▁failure	-13499
▁flushed	-13500
▁gaining	-13501
▁lioness	-13502
▁longing	-13503
▁pasture	-13504
▁pathway	-13505
▁pouting	-13506
▁program	-13507
▁scanned	-13508
▁scooted	-13509
▁scrapes	-13510
▁surgery	-13511
▁tighten	-13512
▁toppled	-13513
▁violins	-13514
▁whizzed	-13515
Disappear	-13516
dangerous	-13517
▁Surprise	-13518
▁antennas	-13519
▁cowgirls	-13520
▁crumpled	-13521
▁dazzling	-13522
▁demonstr	-13523
▁features	-13524
▁launched	-13525
▁matchbox	-13526
▁overcame	-13527
▁passerby	-13528
▁persuade	-13529
▁quarrels	-13530
▁recently	-13531
▁scariest	-13532
▁smashing	-13533
▁unfolded	-13534
▁Adventure	-13535
▁Blueberry	-13536
▁assistant	-13537
▁crackling	-13538
▁reindeers	-13539
▁strangely	-13540
▁Dependable	-13541
▁Frightened	-13542
▁boundaries	-13543
▁considered	-13544
▁diligently	-13545
▁haircutter	-13546
▁somersault	-13547
▁summertime	-13548
▁replacement	-13549
▁responsibly	-13550
▁relationships	-13551
▁underestimate	-13552
▁unforgettable	-13553
Av	-13554
Ru	-13555
gh	-13556
gr	-13557
ua	-13558
Bun	-13559
OAR	-13560
amo	-13561
dad	-13562
for	-13563
mes	-13564
oko	-13565
oyo	-13566
whe	-13567
▁"5	-13568
Carl	-13569
Cats	-13570
Doll	-13571
Long	-13572
Paul	-13573
Send	-13574
aila	-13575
bies	-13576
hate	-13577
ivid	-13578
ooch	-13579
orny	-13580
ping	-13581
roar	-13582
seed	-13583
suit	-13584
umbo	-13585
wear	-13586
▁Den	-13587
▁Ian	-13588
▁Ink	-13589
▁Jak	-13590
▁Jor	-13591
▁Lil	-13592
▁Zed	-13593
▁bid	-13594
▁coz	-13595
▁doc	-13596
▁jig	-13597
▁ket	-13598
▁nar	-13599
Rocky	-13600
Shake	-13601
akers	-13602
catch	-13603
cking	-13604
essor	-13605
fight	-13606
heard	-13607
istic	-13608
maybe	-13609
power	-13610
▁"3".	-13611
▁911.	-13612
▁Bike	-13613
▁Deer	-13614
▁Eddy	-13615
▁Fuzz	-13616
▁Guns	-13617
▁Home	-13618
▁Lean	-13619
▁Lula	-13620
▁Norm	-13621
▁Oats	-13622
▁Puzz	-13623
▁Rico	-13624
▁Root	-13625
▁Sour	-13626
▁Yoyo	-13627
▁alas	-13628
▁asse	-13629
▁beck	-13630
▁brat	-13631
▁brim	-13632
▁coos	-13633
▁emot	-13634
▁gown	-13635
▁inqu	-13636
▁jugs	-13637
▁numb	-13638
▁orig	-13639
▁rung	-13640
▁skid	-13641
Yippee	-13642
Zigzag	-13643
haired	-13644
ionate	-13645
ogging	-13646
ternet	-13647
vation	-13648
verest	-13649
▁Aiden	-13650
▁Benji	-13651
▁Bubby	-13652
▁Cacky	-13653
▁Cluck	-13654
▁Crazy	-13655
▁Curly	-13656
▁Dough	-13657
▁Grape	-13658
▁Henri	-13659
▁Jesus	-13660
▁Joyce	-13661
▁Phill	-13662
▁Power	-13663
▁Quiet	-13664
▁Shiny	-13665
▁Steel	-13666
▁Zebra	-13667
▁ditch	-13668
▁glint	-13669
▁kilos	-13670
▁leaks	-13671
▁lolly	-13672
▁outst	-13673
▁plums	-13674
▁postc	-13675
▁sales	-13676
▁shove	-13677
▁smirk	-13678
▁snout	-13679
▁tadpo	-13680
▁whips	-13681
Sweetie	-13682
inished	-13683
release	-13684
▁Beetle	-13685
▁Bitter	-13686
▁Clouds	-13687
▁Doughy	-13688
▁Driver	-13689
▁Faster	-13690
▁Franny	-13691
▁Lawyer	-13692
▁Miller	-13693
▁Printy	-13694
▁Scared	-13695
▁Sneeze	-13696
▁ballet	-13697
▁dearly	-13698
▁desire	-13699
▁forces	-13700
▁garlic	-13701
▁glossy	-13702
▁intrud	-13703
▁jersey	-13704
▁kettle	-13705
▁litter	-13706
▁neater	-13707
▁piglet	-13708
▁rudely	-13709
▁shoved	-13710
▁tiptoe	-13711
▁Besides	-13712
▁Carrots	-13713
▁Drawing	-13714
▁Scarlet	-13715
▁Tonight	-13716
▁bandana	-13717
▁bonfire	-13718
▁boredom	-13719
▁casting	-13720
▁clamber	-13721
▁crumbly	-13722
▁existed	-13723
▁flicker	-13724
▁hobbies	-13725
▁obliged	-13726
▁passage	-13727
▁prouder	-13728
▁punched	-13729
▁refuses	-13730
▁seaside	-13731
▁slurped	-13732
▁spelled	-13733
▁teddies	-13734
▁whirred	-13735
▁yogurts	-13736
Butterfly	-13737
▁Balloons	-13738
▁Exercise	-13739
▁Standing	-13740
▁Universe	-13741
▁calmness	-13742
▁coolness	-13743
▁cultures	-13744
▁emotions	-13745
▁fearless	-13746
▁internet	-13747
▁massaged	-13748
▁puckered	-13749
▁replying	-13750
▁resolved	-13751
▁sprinted	-13752
▁strutted	-13753
▁apartment	-13754
▁cleverest	-13755
▁cornfield	-13756
▁dreamland	-13757
▁everytime	-13758
▁festivals	-13759
▁mechanics	-13760
▁souvenirs	-13761
▁thousands	-13762
▁tiredness	-13763
▁uncertain	-13764
▁unscrewed	-13765
▁difficulty	-13766
▁hurricanes	-13767
▁intentions	-13768
▁lighthouse	-13769
▁meaningful	-13770
▁remarkable	-13771
▁smoothness	-13772
▁sprinkling	-13773
▁experiments	-13774
▁quarrelling	-13775
▁reflections	-13776
▁outstretched	-13777
▁paintbrushes	-13778
▁disrespectful	-13779
'!	-13780
0.	-13781
AP	-13782
Dr	-13783
Up	-13784
bs	-13785
?''	-13786
Bub	-13787
Ele	-13788
Jam	-13789
Six	-13790
chy	-13791
eee	-13792
ela	-13793
ele	-13794
ham	-13795
olk	-13796
omi	-13797
rer	-13798
▁Na	-13799
▁ko	-13800
▁oo	-13801
Alex	-13802
Boat	-13803
Hmmm	-13804
Mike	-13805
Quit	-13806
Ruff	-13807
Soph	-13808
Toot	-13809
acon	-13810
alie	-13811
baby	-13812
beat	-13813
ench	-13814
gged	-13815
ills	-13816
lete	-13817
long	-13818
oint	-13819
rrrr	-13820
umsy	-13821
▁10,	-13822
▁Gil	-13823
▁Kid	-13824
▁Log	-13825
▁Nad	-13826
▁Rod	-13827
▁Tee	-13828
▁Tob	-13829
▁abs	-13830
▁sis	-13831
▁vig	-13832
Annie	-13833
Clock	-13834
Fetch	-13835
Hoppy	-13836
Pinky	-13837
Queen	-13838
Spicy	-13839
arium	-13840
erved	-13841
etern	-13842
hness	-13843
irror	-13844
iwork	-13845
myard	-13846
opher	-13847
pherd	-13848
▁Bath	-13849
▁Davy	-13850
▁Face	-13851
▁Game	-13852
▁Goat	-13853
▁Lana	-13854
▁Lock	-13855
▁Lord	-13856
▁Macy	-13857
▁Mist	-13858
▁Plus	-13859
▁Roby	-13860
▁Slim	-13861
▁bale	-13862
▁coax	-13863
▁dies	-13864
▁dren	-13865
▁fres	-13866
▁joys	-13867
▁litt	-13868
▁moos	-13869
▁oval	-13870
▁plow	-13871
▁prey	-13872
▁role	-13873
Cheers	-13874
Spring	-13875
chairs	-13876
ealing	-13877
rolled	-13878
uments	-13879
▁Baldy	-13880
▁Crack	-13881
▁Ducks	-13882
▁Georg	-13883
▁Harsh	-13884
▁Ignor	-13885
▁Keith	-13886
▁Maggy	-13887
▁Marge	-13888
▁Order	-13889
▁Pokie	-13890
▁Shawn	-13891
▁Socks	-13892
▁Thump	-13893
▁Tilda	-13894
▁Vinny	-13895
▁Wormy	-13896
▁ached	-13897
▁adopt	-13898
▁cance	-13899
▁drier	-13900
▁drips	-13901
▁drunk	-13902
▁etern	-13903
▁feroc	-13904
▁maths	-13905
▁plugs	-13906
▁scowl	-13907
▁shack	-13908
▁soaps	-13909
▁swarm	-13910
▁token	-13911
▁tourn	-13912
▁treet	-13913
Warning	-13914
history	-13915
keeping	-13916
lantern	-13917
osquito	-13918
rinkles	-13919
▁Bertie	-13920
▁Clumsy	-13921
▁Eraser	-13922
▁Joshua	-13923
▁Jumper	-13924
▁Jungle	-13925
▁Parrot	-13926
▁Street	-13927
▁Victor	-13928
▁beaten	-13929
▁clicks	-13930
▁finest	-13931
▁fished	-13932
▁floods	-13933
▁holder	-13934
▁jiggle	-13935
▁latest	-13936
▁nozzle	-13937
▁omelet	-13938
▁parlor	-13939
▁poorly	-13940
▁reluct	-13941
▁sawing	-13942
▁sensed	-13943
▁smarts	-13944
▁strive	-13945
▁system	-13946
Lemonade	-13947
Princess	-13948
▁Bradley	-13949
▁Contest	-13950
▁Cooking	-13951
▁Penguin	-13952
▁Pumpkin	-13953
▁Sausage	-13954
▁Slither	-13955
▁Sweetie	-13956
▁Wiggles	-13957
▁faucets	-13958
▁fighter	-13959
▁fingert	-13960
▁flopped	-13961
▁fortune	-13962
▁grazing	-13963
▁mopping	-13964
▁partied	-13965
▁peering	-13966
▁potions	-13967
▁pounded	-13968
▁returns	-13969
▁rounded	-13970
▁shortly	-13971
▁stabbed	-13972
▁steeper	-13973
▁toddled	-13974
▁wriggle	-13975
asketball	-13976
sometimes	-13977
▁Bouncing	-13978
▁Children	-13979
▁Counting	-13980
▁Teaspoon	-13981
▁Thinking	-13982
▁birdseed	-13983
▁dislikes	-13984
▁drenched	-13985
▁engineer	-13986
▁explodes	-13987
▁farmyard	-13988
▁handfuls	-13989
▁mermaids	-13990
▁prickles	-13991
▁provides	-13992
▁research	-13993
▁shepherd	-13994
▁squatted	-13995
▁stitched	-13996
▁suitable	-13997
▁swingset	-13998
Sweetheart	-13999
▁Realizing	-14000
▁clambered	-14001
▁classmate	-14002
▁exception	-14003
▁glimmered	-14004
▁handiwork	-14005
▁interrupt	-14006
▁ambulances	-14007
▁chessboard	-14008
▁department	-14009
▁paramedics	-14010
▁recordings	-14011
▁regardless	-14012
▁speechless	-14013
▁tournament	-14014
▁comfortably	-14015
▁compliments	-14016
▁safekeeping	-14017
▁superpowers	-14018
▁Congratulations	-14019
,’	-14020
,“	-14021
ba	-14022
Mrs	-14023
NAP	-14024
Rub	-14025
big	-14026
hoo	-14027
ipt	-14028
kel	-14029
lot	-14030
rep	-14031
zip	-14032
▁5,	-14033
▁su	-14034
Joey	-14035
Pull	-14036
Sing	-14037
Toto	-14038
Tuna	-14039
Wise	-14040
aunt	-14041
azel	-14042
bags	-14043
bike	-14044
dern	-14045
imid	-14046
oise	-14047
rove	-14048
uffs	-14049
▁Bus	-14050
▁Com	-14051
▁Dar	-14052
▁Gab	-14053
▁Hal	-14054
▁Mid	-14055
▁Ren	-14056
▁Sat	-14057
▁Yay	-14058
▁Zoo	-14059
▁arf	-14060
▁fri	-14061
▁huh	-14062
▁imm	-14063
▁raf	-14064
Cloud	-14065
Shall	-14066
Since	-14067
ander	-14068
asons	-14069
green	-14070
idget	-14071
ierre	-14072
iggle	-14073
ignor	-14074
ively	-14075
novel	-14076
ounds	-14077
stone	-14078
uxury	-14079
vable	-14080
▁Anny	-14081
▁Boot	-14082
▁Card	-14083
▁Deep	-14084
▁Evan	-14085
▁Fill	-14086
▁Lamp	-14087
▁Late	-14088
▁Left	-14089
▁Lyla	-14090
▁Sign	-14091
▁Slip	-14092
▁Wear	-14093
▁balm	-14094
▁cran	-14095
▁fang	-14096
▁pats	-14097
▁pred	-14098
▁pros	-14099
▁rent	-14100
Chicky	-14101
Oxygen	-14102
Parrot	-14103
Sophie	-14104
Squeak	-14105
cupine	-14106
ilding	-14107
udging	-14108
▁Andre	-14109
▁Board	-14110
▁Crash	-14111
▁Hazel	-14112
▁Kerry	-14113
▁Laila	-14114
▁Lunch	-14115
▁Mixer	-14116
▁Snail	-14117
▁Store	-14118
▁Turns	-14119
▁Waste	-14120
▁achoo	-14121
▁apolo	-14122
▁blues	-14123
▁bulls	-14124
▁clasp	-14125
▁corns	-14126
▁donut	-14127
▁gazes	-14128
▁glory	-14129
▁ident	-14130
▁jacks	-14131
▁mango	-14132
▁menus	-14133
▁occur	-14134
▁rests	-14135
▁saliv	-14136
▁sawed	-14137
▁silky	-14138
Tonight	-14139
ference	-14140
intment	-14141
ittered	-14142
pensive	-14143
tasting	-14144
▁Around	-14145
▁Crocky	-14146
▁Helper	-14147
▁Kirsty	-14148
▁Knight	-14149
▁Lemons	-14150
▁Lotion	-14151
▁Majest	-14152
▁Modest	-14153
▁Pierre	-14154
▁Smooth	-14155
▁Smudge	-14156
▁Stuart	-14157
▁Trixie	-14158
▁attent	-14159
▁builds	-14160
▁camels	-14161
▁cheery	-14162
▁choppy	-14163
▁cooing	-14164
▁fasten	-14165
▁growth	-14166
▁leaked	-14167
▁likely	-14168
▁looped	-14169
▁newest	-14170
▁piling	-14171
▁proven	-14172
▁rhymes	-14173
▁safest	-14174
▁selves	-14175
▁slings	-14176
▁stalls	-14177
Climbing	-14178
coloured	-14179
ganizing	-14180
ignorant	-14181
increase	-14182
isherman	-14183
rawberry	-14184
▁Ancient	-14185
▁Cricket	-14186
▁Mailman	-14187
▁Natalie	-14188
▁Phillip	-14189
▁Wheelie	-14190
▁arrival	-14191
▁babyish	-14192
▁bundled	-14193
▁crevice	-14194
▁darkest	-14195
▁divided	-14196
▁grasped	-14197
▁grizzly	-14198
▁hairsty	-14199
▁intimid	-14200
▁juggled	-14201
▁justice	-14202
▁merrily	-14203
▁origami	-14204
▁produce	-14205
▁receipt	-14206
▁shifted	-14207
▁smudged	-14208
▁swished	-14209
▁threats	-14210
▁weaving	-14211
Jellyfish	-14212
▁Dinosaur	-14213
▁Lancelot	-14214
▁Original	-14215
▁Studying	-14216
▁Watching	-14217
▁avoiding	-14218
▁craziest	-14219
▁doghouse	-14220
▁flooding	-14221
▁lightest	-14222
▁password	-14223
▁pleading	-14224
▁pressure	-14225
▁sideways	-14226
▁steadily	-14227
▁survived	-14228
▁Afterward	-14229
▁Gradually	-14230
▁Happiness	-14231
▁Terrified	-14232
▁addressed	-14233
▁attracted	-14234
▁breakable	-14235
▁briefcase	-14236
▁fortunate	-14237
▁memorable	-14238
▁nighttime	-14239
▁obedience	-14240
▁seatbelts	-14241
▁staircase	-14242
▁stammered	-14243
▁teammates	-14244
▁tornadoes	-14245
▁travelers	-14246
▁unplugged	-14247
▁apologetic	-14248
▁apologizes	-14249
▁fingertips	-14250
▁helplessly	-14251
▁pleasantly	-14252
▁profession	-14253
▁ringmaster	-14254
▁sharpening	-14255
▁stubbornly	-14256
▁telephones	-14257
▁whimpering	-14258
▁apologizing	-14259
▁helpfulness	-14260
▁personality	-14261
▁suggestions	-14262
▁trespassing	-14263
▁demonstrated	-14264
▁difficulties	-14265
▁extinguisher	-14266
▁accomplishments	-14267
Ar	-14268
By	-14269
Gr	-14270
La	-14271
\"	-14272
mi	-14273
▁`	-14274
!?"	-14275
ING	-14276
Pee	-14277
Rel	-14278
Ugh	-14279
ads	-14280
hop	-14281
yay	-14282
▁"'	-14283
▁Ah	-14284
▁Ze	-14285
▁ll	-14286
▁pi	-14287
Clap	-14288
Dave	-14289
Gigi	-14290
Girl	-14291
Kiss	-14292
Read	-14293
Save	-14294
Woah	-14295
aaah	-14296
aris	-14297
irus	-14298
itor	-14299
leas	-14300
neel	-14301
nuts	-14302
thel	-14303
tyle	-14304
wood	-14305
yuck	-14306
▁Aly	-14307
▁Fer	-14308
▁Jug	-14309
▁Rem	-14310
▁Row	-14311
▁Toe	-14312
▁Tow	-14313
▁Ziz	-14314
▁aqu	-14315
▁cal	-14316
▁pub	-14317
▁rev	-14318
▁rum	-14319
▁sap	-14320
▁sid	-14321
▁zap	-14322
Binky	-14323
Pandy	-14324
Penny	-14325
Shoot	-14326
Zebra	-14327
acamo	-14328
agged	-14329
antic	-14330
check	-14331
eched	-14332
ennel	-14333
feree	-14334
ivers	-14335
leste	-14336
obble	-14337
owder	-14338
rying	-14339
▁Amaz	-14340
▁Bump	-14341
▁Cane	-14342
▁Chad	-14343
▁Fair	-14344
▁Gran	-14345
▁Grey	-14346
▁Jana	-14347
▁July	-14348
▁Lolo	-14349
▁Maia	-14350
▁Mari	-14351
▁Ming	-14352
▁Skye	-14353
▁Tall	-14354
▁dart	-14355
▁duty	-14356
▁eyed	-14357
▁fizz	-14358
▁gaps	-14359
▁kiwi	-14360
▁phra	-14361
▁pure	-14362
▁tutu	-14363
▁virt	-14364
▁whee	-14365
Banana	-14366
Pepper	-14367
entine	-14368
ictory	-14369
indeer	-14370
splash	-14371
stance	-14372
supply	-14373
▁Boots	-14374
▁Cliff	-14375
▁Ethel	-14376
▁Freck	-14377
▁Fritz	-14378
▁Ghost	-14379
▁Nappy	-14380
▁Oasis	-14381
▁Seaty	-14382
▁Space	-14383
▁Steam	-14384
▁Swans	-14385
▁Woofy	-14386
▁baaed	-14387
▁bloss	-14388
▁brist	-14389
▁camps	-14390
▁cargo	-14391
▁chomp	-14392
▁crows	-14393
▁curvy	-14394
▁dread	-14395
▁entry	-14396
▁fangs	-14397
▁frees	-14398
▁giddy	-14399
▁handc	-14400
▁koala	-14401
▁limit	-14402
▁mower	-14403
▁oohed	-14404
▁plump	-14405
▁spout	-14406
Helping	-14407
Mittens	-14408
Perfect	-14409
acamole	-14410
iration	-14411
iteness	-14412
ophones	-14413
▁Canada	-14414
▁Cheryl	-14415
▁Clucky	-14416
▁Finger	-14417
▁Forest	-14418
▁French	-14419
▁Humble	-14420
▁Knives	-14421
▁Police	-14422
▁Ronnie	-14423
▁Second	-14424
▁Snappy	-14425
▁Trucko	-14426
▁cannon	-14427
▁contri	-14428
▁costly	-14429
▁cursed	-14430
▁frilly	-14431
▁fuller	-14432
▁hooted	-14433
▁hunted	-14434
▁kennel	-14435
▁looser	-14436
▁lowest	-14437
▁pauses	-14438
▁pinned	-14439
▁produc	-14440
▁pumped	-14441
▁scenes	-14442
▁skated	-14443
▁streak	-14444
▁swiped	-14445
ctopuses	-14446
kerchief	-14447
▁Celeste	-14448
▁Diamond	-14449
▁Grizzly	-14450
▁Majesty	-14451
▁Mineral	-14452
▁Seagull	-14453
▁Spiders	-14454
▁advised	-14455
▁earring	-14456
▁gadgets	-14457
▁harshly	-14458
▁illness	-14459
▁immense	-14460
▁insides	-14461
▁judging	-14462
▁keepers	-14463
▁pyjamas	-14464
▁pyramid	-14465
▁rafting	-14466
▁railing	-14467
▁reasons	-14468
▁recycle	-14469
▁referee	-14470
▁rustled	-14471
▁safaris	-14472
▁sharper	-14473
▁variety	-14474
▁various	-14475
▁whirled	-14476
Chocolate	-14477
Dangerous	-14478
▁Sleeping	-14479
▁Slowpoke	-14480
▁Swinging	-14481
▁Whatever	-14482
▁aquarium	-14483
▁clicking	-14484
▁defended	-14485
▁delivers	-14486
▁devoured	-14487
▁eternity	-14488
▁gracious	-14489
▁honestly	-14490
▁hungrily	-14491
▁junkyard	-14492
▁marchers	-14493
▁ointment	-14494
▁perfumes	-14495
▁speckled	-14496
▁spiciest	-14497
▁splinter	-14498
▁ticklish	-14499
▁villages	-14500
▁whistler	-14501
▁Dangerous	-14502
▁Everytime	-14503
▁Somewhere	-14504
▁armchairs	-14505
▁arranging	-14506
▁carpenter	-14507
▁dashboard	-14508
▁guacamole	-14509
▁magicians	-14510
▁motorbike	-14511
▁obviously	-14512
▁overheard	-14513
▁parachute	-14514
▁playmates	-14515
▁porcupine	-14516
▁professor	-14517
▁screeched	-14518
▁slingshot	-14519
▁twitching	-14520
▁complaints	-14521
▁drumsticks	-14522
▁operations	-14523
▁photograph	-14524
▁responding	-14525
▁roundabout	-14526
▁spaceships	-14527
▁bookshelves	-14528
▁hospitality	-14529
▁hummingbird	-14530
▁microphones	-14531
▁somersaults	-14532
▁achievements	-14533
▁gracefulness	-14534
▁handkerchief	-14535
▁reassuringly	-14536
▁triumphantly	-14537
CH	-14538
CK	-14539
Ig	-14540
Sk	-14541
.",	-14542
Att	-14543
Aww	-14544
God	-14545
Kim	-14546
PLA	-14547
Pig	-14548
lby	-14549
lin	-14550
mom	-14551
pom	-14552
rol	-14553
spl	-14554
ubs	-14555
▁Mu	-14556
Ahhh	-14557
Bees	-14558
Draw	-14559
Geor	-14560
Goat	-14561
Honk	-14562
Peek	-14563
Swim	-14564
Wine	-14565
Zara	-14566
alls	-14567
amer	-14568
amps	-14569
back	-14570
esky	-14571
even	-14572
gedy	-14573
iter	-14574
izer	-14575
ller	-14576
mond	-14577
ormy	-14578
rock	-14579
rose	-14580
spin	-14581
turn	-14582
▁Fil	-14583
▁Imp	-14584
▁Oni	-14585
▁POP	-14586
▁Rep	-14587
▁Tug	-14588
▁Way	-14589
▁Zac	-14590
▁gig	-14591
▁oar	-14592
▁pom	-14593
▁pul	-14594
▁wed	-14595
Brown	-14596
Cluck	-14597
Dizzy	-14598
Kneel	-14599
Knock	-14600
Spark	-14601
arned	-14602
break	-14603
erald	-14604
odies	-14605
ringe	-14606
spicy	-14607
stage	-14608
taker	-14609
umped	-14610
▁BANG	-14611
▁Boxy	-14612
▁Caty	-14613
▁Free	-14614
▁Koko	-14615
▁Pepe	-14616
▁Puss	-14617
▁Quit	-14618
▁SNAP	-14619
▁Sher	-14620
▁Upon	-14621
▁Wipe	-14622
▁diet	-14623
▁educ	-14624
▁flop	-14625
▁foil	-14626
▁hars	-14627
▁laps	-14628
▁oily	-14629
▁owie	-14630
▁pedd	-14631
▁plop	-14632
▁reve	-14633
▁symp	-14634
▁unra	-14635
▁vows	-14636
▁wars	-14637
Bounce	-14638
Celery	-14639
Circus	-14640
George	-14641
Spider	-14642
Wheeee	-14643
Wonder	-14644
angles	-14645
beying	-14646
legged	-14647
leness	-14648
ritory	-14649
strike	-14650
vanish	-14651
▁Angus	-14652
▁Arnie	-14653
▁Blood	-14654
▁Cheap	-14655
▁Corny	-14656
▁Hally	-14657
▁Jorge	-14658
▁Knife	-14659
▁Plant	-14660
▁Score	-14661
▁Squee	-14662
▁Thorn	-14663
▁Touch	-14664
▁Tuffy	-14665
▁Tummy	-14666
▁Write	-14667
▁await	-14668
▁bacon	-14669
▁booms	-14670
▁clank	-14671
▁cools	-14672
▁dents	-14673
▁drool	-14674
▁fiery	-14675
▁galax	-14676
▁girly	-14677
▁inner	-14678
▁kiddo	-14679
▁leafy	-14680
▁pesky	-14681
▁pests	-14682
▁posts	-14683
▁rafts	-14684
▁scars	-14685
▁spool	-14686
▁tenth	-14687
▁trink	-14688
▁vigor	-14689
▁virus	-14690
▁waggy	-14691
Matches	-14692
Rainbow	-14693
ingerly	-14694
isitive	-14695
▁Baking	-14696
▁Banana	-14697
▁Barney	-14698
▁Brainy	-14699
▁Handle	-14700
▁Higher	-14701
▁Kitten	-14702
▁Makeup	-14703
▁Really	-14704
▁Riding	-14705
▁Sailor	-14706
▁Skippy	-14707
▁Squash	-14708
▁Stormy	-14709
▁Teresa	-14710
▁Tigers	-14711
▁Whippy	-14712
▁aiming	-14713
▁alarms	-14714
▁choked	-14715
▁detail	-14716
▁flagpo	-14717
▁grills	-14718
▁hotdog	-14719
▁manner	-14720
▁mooing	-14721
▁neighs	-14722
▁policy	-14723
▁racket	-14724
▁raging	-14725
▁rights	-14726
▁ripple	-14727
▁squirm	-14728
▁steamy	-14729
▁sulked	-14730
▁ticked	-14731
▁tingly	-14732
▁typing	-14733
▁untidy	-14734
▁virtue	-14735
▁wisest	-14736
Treasure	-14737
iversary	-14738
▁Crabbie	-14739
▁English	-14740
▁Jeannie	-14741
▁Katrina	-14742
▁Machine	-14743
▁Mystery	-14744
▁Oysters	-14745
▁Pastels	-14746
▁Stripes	-14747
▁Unknown	-14748
▁applied	-14749
▁blender	-14750
▁blister	-14751
▁boatman	-14752
▁butcher	-14753
▁caboose	-14754
▁cackled	-14755
▁confess	-14756
▁cooling	-14757
▁cradled	-14758
▁emotion	-14759
▁erasing	-14760
▁exclaim	-14761
▁majesty	-14762
▁mumbled	-14763
▁onboard	-14764
▁orderly	-14765
▁payment	-14766
▁permits	-14767
▁pretzel	-14768
▁rancher	-14769
▁removes	-14770
▁ripping	-14771
▁roasted	-14772
▁slowing	-14773
▁soothed	-14774
▁spooned	-14775
▁stormed	-14776
▁syringe	-14777
▁tipping	-14778
▁tweeted	-14779
▁whimper	-14780
disappear	-14781
▁Clarissa	-14782
▁Pinching	-14783
▁Scarlett	-14784
▁attaches	-14785
▁blossoms	-14786
▁bustling	-14787
▁cactuses	-14788
▁creaking	-14789
▁crumbled	-14790
▁focusing	-14791
▁greenest	-14792
▁hideaway	-14793
▁jingling	-14794
▁melodies	-14795
▁menacing	-14796
▁pinecone	-14797
▁pondered	-14798
▁sleepier	-14799
▁smoothie	-14800
▁speakers	-14801
▁stroking	-14802
▁tadpoles	-14803
▁treating	-14804
▁tricking	-14805
▁upcoming	-14806
▁whizzing	-14807
▁Amazingly	-14808
▁Fisherman	-14809
▁Sprinkles	-14810
▁afterward	-14811
▁apologise	-14812
▁belonging	-14813
▁bumblebee	-14814
▁clubhouse	-14815
▁gentlemen	-14816
▁hairbrush	-14817
▁marvelous	-14818
▁mightiest	-14819
▁milkshake	-14820
▁octopuses	-14821
▁playdough	-14822
▁protested	-14823
▁qualities	-14824
▁recycling	-14825
▁reluctant	-14826
▁sharpened	-14827
▁squawking	-14828
▁swordfish	-14829
▁territory	-14830
▁trumpeted	-14831
▁washcloth	-14832
▁Basketball	-14833
▁assistance	-14834
▁brightness	-14835
▁delicately	-14836
▁friendlier	-14837
▁instructed	-14838
▁inventions	-14839
▁satisfying	-14840
▁triumphant	-14841
▁unfinished	-14842
▁entertained	-14843
▁foolishness	-14844
▁inquisitive	-14845
▁inspiration	-14846
▁storyteller	-14847
▁measurements	-14848
▁professional	-14849
▁surrendering	-14850
▁veterinarians	-14851
▁transformation	-14852
RE	-14853
Su	-14854
Ta	-14855
VE	-14856
uu	-14857
▁,	-14858
!!"	-14859
?'"	-14860
Box	-14861
Hee	-14862
Hen	-14863
Hot	-14864
Lad	-14865
Pen	-14866
Res	-14867
awr	-14868
igo	-14869
oil	-14870
see	-14871
toe	-14872
vis	-14873
▁Mi	-14874
▁NO	-14875
?!".	-14876
Down	-14877
Fifi	-14878
Food	-14879
Leaf	-14880
Milo	-14881
Mira	-14882
Pink	-14883
ROAR	-14884
Tony	-14885
Wolf	-14886
Worm	-14887
Yoga	-14888
ambi	-14889
blue	-14890
chug	-14891
fume	-14892
gies	-14893
ilah	-14894
imet	-14895
kept	-14896
nore	-14897
nter	-14898
orty	-14899
push	-14900
tree	-14901
ushy	-14902
uter	-14903
wort	-14904
▁123	-14905
▁Air	-14906
▁Cec	-14907
▁Emi	-14908
▁Fur	-14909
▁Hum	-14910
▁Jed	-14911
▁Sym	-14912
▁coy	-14913
▁dew	-14914
▁dun	-14915
▁foe	-14916
▁gur	-14917
▁jay	-14918
▁nug	-14919
▁ven	-14920
Blast	-14921
Girls	-14922
Harry	-14923
James	-14924
March	-14925
Money	-14926
Peace	-14927
Plant	-14928
Puppy	-14929
Slide	-14930
[...]
